<PAD>	0
<UNK>	0
<SOS>	0
<EOS>	0
<SEP>	0
▁t	-0
▁a	-1
▁s	-2
▁th	-3
in	-4
ou	-5
on	-6
re	-7
▁c	-8
▁the	-9
▁b	-10
an	-11
▁w	-12
ld	-13
▁p	-14
er	-15
en	-16
at	-17
or	-18
is	-19
it	-20
ould	-21
es	-22
▁to	-23
▁m	-24
▁sh	-25
▁f	-26
le	-27
니다	-28
ing	-29
al	-30
▁should	-31
▁o	-32
▁an	-33
▁be	-34
ed	-35
ion	-36
ar	-37
▁h	-38
▁d	-39
▁and	-40
▁in	-41
▁of	-42
om	-43
▁n	-44
se	-45
소년	-46
ic	-47
▁있	-48
▁W	-49
ent	-50
ve	-51
▁l	-52
▁We	-53
▁is	-54
▁청	-55
ot	-56
ct	-57
op	-58
st	-59
ri	-60
▁g	-61
ll	-62
▁청소년	-63
▁e	-64
▁수	-65
ol	-66
▁이	-67
▁it	-68
▁u	-69
▁pr	-70
▁사	-71
▁for	-72
et	-73
ay	-74
id	-75
▁re	-76
습니다	-77
▁보	-78
ation	-79
▁we	-80
▁wh	-81
ce	-82
▁su	-83
ly	-84
합니다	-85
▁ch	-86
▁ha	-87
ir	-88
▁not	-89
▁are	-90
으로	-91
ch	-92
하는	-93
ow	-94
▁pe	-95
▁ab	-96
iz	-97
▁대	-98
ver	-99
▁peop	-100
폐지	-101
▁아	-102
▁people	-103
▁can	-104
▁that	-105
▁가	-106
ad	-107
▁st	-108
▁i	-109
gh	-110
▁ban	-111
▁폐지	-112
▁le	-113
au	-114
▁pro	-115
▁on	-116
▁they	-117
ut	-118
as	-119
ment	-120
▁as	-121
▁기	-122
▁부	-123
ause	-124
el	-125
▁그	-126
▁li	-127
▁위	-128
od	-129
ore	-130
th	-131
▁bec	-132
ul	-133
▁com	-134
ers	-135
▁정	-136
ith	-137
ght	-138
ke	-139
▁지	-140
ci	-141
입니다	-142
ren	-143
▁have	-144
▁보호	-145
▁because	-146
▁ne	-147
▁their	-148
am	-149
▁con	-150
▁인	-151
▁해	-152
ill	-153
ild	-154
▁것	-155
▁제	-156
▁de	-157
▁en	-158
하고	-159
▁처	-160
▁있습니다	-161
▁go	-162
ual	-163
▁법	-164
▁안	-165
▁y	-166
ive	-167
our	-168
il	-169
ate	-170
iv	-171
▁so	-172
▁v	-173
▁with	-174
▁child	-175
다는	-176
하지	-177
ur	-178
▁more	-179
ant	-180
▁교	-181
and	-182
ab	-183
▁un	-184
▁저	-185
▁ex	-186
ome	-187
ize	-188
▁or	-189
gal	-190
범죄	-191
▁j	-192
▁처벌	-193
▁강	-194
ies	-195
fe	-196
▁wor	-197
▁all	-198
ac	-199
▁개	-200
▁일	-201
out	-202
에서	-203
ish	-204
ess	-205
▁do	-206
▁어	-207
▁생	-208
▁r	-209
ge	-210
적인	-211
▁legal	-212
▁더	-213
ap	-214
세요	-215
▁자	-216
▁int	-217
ity	-218
one	-219
▁국	-220
ism	-221
▁범죄	-222
▁ri	-223
▁공	-224
▁주	-225
ction	-226
▁would	-227
▁사회	-228
▁소년	-229
▁다	-230
▁se	-231
os	-232
들이	-233
▁있다	-234
▁시	-235
▁right	-236
▁tr	-237
..	-238
bs	-239
해자	-240
est	-241
▁소년법	-242
im	-243
▁성	-244
un	-245
▁them	-246
▁전	-247
▁문	-248
oun	-249
ose	-250
ger	-251
▁고	-252
▁ma	-253
▁의	-254
ud	-255
ig	-256
▁comp	-257
▁없	-258
▁재	-259
▁need	-260
ous	-261
▁sp	-262
▁한	-263
ool	-264
▁오	-265
ort	-266
▁여	-267
chool	-268
▁교육	-269
ain	-270
ory	-271
▁will	-272
▁중	-273
▁I	-274
ide	-275
▁피	-276
▁않	-277
ans	-278
pp	-279
▁k	-280
▁학	-281
▁children	-282
bsid	-283
▁if	-284
rim	-285
▁필	-286
▁fa	-287
elp	-288
ib	-289
for	-290
ary	-291
▁help	-292
um	-293
▁subsid	-294
▁abol	-295
▁use	-296
주세요	-297
▁ad	-298
하지만	-299
▁who	-300
arm	-301
▁T	-302
ost	-303
ist	-304
▁there	-305
mp	-306
end	-307
▁lo	-308
▁하	-309
적으로	-310
▁fr	-311
▁확	-312
▁work	-313
▁무	-314
▁al	-315
cial	-316
ure	-317
▁you	-318
▁than	-319
▁동	-320
되어	-321
▁allow	-322
▁필요	-323
▁나	-324
▁합니다	-325
▁경	-326
▁sur	-327
▁위한	-328
ust	-329
▁man	-330
▁방	-331
ence	-332
▁from	-333
▁생각	-334
▁this	-335
▁대한	-336
▁crim	-337
ned	-338
▁장	-339
he	-340
▁강화	-341
art	-342
▁보호법	-343
▁act	-344
▁아이	-345
▁by	-346
▁oth	-347
ert	-348
▁S	-349
able	-350
▁abolish	-351
uc	-352
▁우	-353
▁some	-354
▁sa	-355
하면	-356
▁있는	-357
very	-358
▁폭	-359
▁문제	-360
▁미	-361
▁반	-362
▁end	-363
▁모	-364
히려	-365
▁근	-366
▁오히려	-367
og	-368
하게	-369
ult	-370
▁good	-371
해야	-372
age	-373
▁도	-374
▁school	-375
▁banned	-376
▁통	-377
다고	-378
em	-379
us	-380
are	-381
보호	-382
▁exp	-383
▁조	-384
들의	-385
이라	-386
▁legalize	-387
에게	-388
▁회	-389
sation	-390
▁cl	-391
▁no	-392
▁엄	-393
▁at	-394
보호법	-395
▁유	-396
▁many	-397
ace	-398
form	-399
▁비	-400
▁imp	-401
하기	-402
▁것이	-403
▁해결	-404
onom	-405
▁현	-406
ff	-407
ors	-408
lect	-409
▁아니	-410
reat	-411
성을	-412
▁확대	-413
▁받	-414
▁la	-415
▁get	-416
▁청소년보호법	-417
▁subsidize	-418
▁has	-419
mit	-420
▁way	-421
▁피해자	-422
▁trad	-423
ount	-424
▁rel	-425
ire	-426
▁don	-427
▁br	-428
▁pri	-429
▁회복	-430
▁단	-431
ep	-432
ree	-433
ie	-434
▁fo	-435
sion	-436
andon	-437
▁abandon	-438
ons	-439
▁out	-440
ves	-441
▁상	-442
으며	-443
▁실	-444
▁심	-445
▁prov	-446
▁other	-447
▁us	-448
ter	-449
▁surger	-450
▁악	-451
acy	-452
▁예	-453
▁원	-454
▁harm	-455
ia	-456
▁surgery	-457
▁law	-458
▁The	-459
ial	-460
ice	-461
▁그러	-462
▁개선	-463
▁te	-464
uman	-465
▁mar	-466
ings	-467
res	-468
▁효	-469
▁C	-470
etic	-471
ip	-472
▁cas	-473
rent	-474
▁많	-475
하여	-476
▁ta	-477
▁위해	-478
▁pl	-479
보다는	-480
▁청소년의	-481
▁바	-482
ical	-483
▁발	-484
ations	-485
▁만	-486
ution	-487
책임	-488
▁지원	-489
▁불	-490
▁he	-491
▁pers	-492
▁사건	-493
ight	-494
▁ke	-495
cess	-496
▁책임	-497
▁잘	-498
▁국민	-499
osm	-500
osmetic	-501
▁과	-502
edia	-503
her	-504
해주세요	-505
▁stud	-506
▁cann	-507
▁요	-508
▁그러나	-509
▁any	-510
▁make	-511
▁A	-512
▁could	-513
▁행	-514
▁pol	-515
ong	-516
kes	-517
▁org	-518
▁cosmetic	-519
▁conver	-520
▁아니라	-521
▁가능	-522
▁소	-523
▁dis	-524
▁every	-525
▁청소년법	-526
ivism	-527
▁부산	-528
ich	-529
▁care	-530
▁것은	-531
▁human	-532
▁me	-533
▁통해	-534
▁loans	-535
▁conversation	-536
▁되	-537
▁keep	-538
지만	-539
▁person	-540
▁진	-541
▁inc	-542
▁wom	-543
▁목	-544
▁casual	-545
▁건	-546
atory	-547
▁cont	-548
ety	-549
▁기회	-550
▁사회적	-551
▁want	-552
lic	-553
▁count	-554
▁가해자	-555
inal	-556
도록	-557
ect	-558
▁min	-559
▁ar	-560
▁신	-561
ard	-562
ue	-563
▁폭행	-564
▁one	-565
▁초	-566
ars	-567
▁내	-568
▁our	-569
▁only	-570
▁ac	-571
▁student	-572
중생	-573
!!	-574
▁적	-575
opt	-576
vel	-577
▁운	-578
▁bet	-579
▁ind	-580
▁adopt	-581
king	-582
▁안전	-583
▁sy	-584
▁just	-585
▁cho	-586
▁what	-587
ative	-588
▁lead	-589
oney	-590
ition	-591
▁off	-592
▁money	-593
▁살	-594
stit	-595
andatory	-596
▁res	-597
▁which	-598
므로	-599
ving	-600
stem	-601
if	-602
▁있으며	-603
▁food	-604
▁감	-605
get	-606
ere	-607
▁노	-608
▁about	-609
▁차	-610
▁마	-611
▁women	-612
▁효과	-613
ms	-614
ision	-615
ized	-616
들은	-617
der	-618
▁those	-619
ry	-620
▁def	-621
▁근본	-622
lear	-623
▁soci	-624
▁연	-625
들을	-626
▁system	-627
▁의무	-628
▁관	-629
▁vot	-630
▁줄	-631
▁mandatory	-632
ru	-633
▁점	-634
▁relig	-635
qu	-636
▁up	-637
▁제도	-638
▁weap	-639
▁like	-640
▁gr	-641
act	-642
▁compan	-643
stitution	-644
▁고려	-645
ated	-646
day	-647
▁rights	-648
니까	-649
통령	-650
되어야	-651
ub	-652
▁life	-653
▁생각합니다	-654
▁접	-655
▁sex	-656
사건	-657
▁분	-658
▁할	-659
▁이유	-660
▁pay	-661
▁when	-662
▁회복과	-663
▁organ	-664
▁too	-665
▁범죄를	-666
▁part	-667
▁weapons	-668
▁uni	-669
ces	-670
ilit	-671
▁못	-672
▁col	-673
▁safe	-674
▁방지	-675
▁pa	-676
▁prof	-677
성과	-678
▁society	-679
uclear	-680
pt	-681
ance	-682
▁잘못	-683
oster	-684
▁able	-685
vern	-686
ublic	-687
▁ec	-688
▁criminal	-689
너무	-690
ization	-691
▁형	-692
alth	-693
▁법을	-694
▁청원	-695
▁govern	-696
▁부담	-697
▁fam	-698
▁det	-699
▁mis	-700
▁보장	-701
▁구	-702
▁사람	-703
▁복	-704
보다	-705
▁public	-706
▁학생	-707
▁tim	-708
▁fe	-709
ctions	-710
▁kill	-711
▁ag	-712
▁limit	-713
▁저지	-714
▁환	-715
▁말	-716
▁선	-717
▁기회를	-718
▁pre	-719
pport	-720
▁영	-721
▁government	-722
▁jud	-723
▁너무	-724
▁같	-725
ell	-726
▁데	-727
▁nuclear	-728
▁prop	-729
▁econom	-730
▁test	-731
▁하는	-732
▁may	-733
ec	-734
▁높	-735
▁marri	-736
▁pun	-737
▁expl	-738
▁ret	-739
olog	-740
▁punish	-741
▁Ch	-742
▁처벌을	-743
▁aut	-744
▁우리	-745
▁예방	-746
▁존	-747
▁your	-748
ari	-749
▁평	-750
▁결	-751
▁세	-752
▁import	-753
▁대통령	-754
립니다	-755
▁성장	-756
▁기여	-757
▁장기	-758
▁남	-759
▁충	-760
▁po	-761
▁하지만	-762
aces	-763
ens	-764
▁악용	-765
▁있어	-766
abis	-767
ities	-768
▁cap	-769
▁때	-770
▁fact	-771
▁필요합니다	-772
▁better	-773
ivid	-774
▁cannabis	-775
▁청소년이	-776
ful	-777
▁재범	-778
uch	-779
wn	-780
들어	-781
ally	-782
▁fight	-783
▁world	-784
▁uniform	-785
▁does	-786
▁much	-787
▁shouldn	-788
▁D	-789
정한	-790
▁이해	-791
ividual	-792
▁milit	-793
▁being	-794
hib	-795
▁모든	-796
▁over	-797
▁individual	-798
▁defend	-799
▁여성	-800
▁간	-801
▁dec	-802
▁companies	-803
▁ent	-804
ellig	-805
▁military	-806
▁important	-807
ital	-808
hibit	-809
sel	-810
velop	-811
▁P	-812
▁배	-813
▁own	-814
icial	-815
▁stay	-816
▁into	-817
arget	-818
▁ev	-819
▁성인	-820
▁교육과	-821
▁action	-822
way	-823
▁제한	-824
ough	-825
yg	-826
해서	-827
ag	-828
▁prohibit	-829
▁합	-830
▁서	-831
▁retire	-832
▁fin	-833
▁접근	-834
▁giv	-835
▁whal	-836
omes	-837
fect	-838
▁priv	-839
ygam	-840
▁mission	-841
▁특	-842
▁target	-843
rog	-844
▁time	-845
▁develop	-846
lev	-847
▁pray	-848
▁marriage	-849
elligence	-850
▁심각	-851
▁ra	-852
▁collect	-853
irm	-854
▁cars	-855
▁폐지해주세요	-856
▁학교	-857
▁fast	-858
드립니다	-859
izing	-860
▁punishment	-861
▁laws	-862
▁autonom	-863
▁par	-864
▁space	-865
▁farm	-866
ach	-867
▁polygam	-868
▁stop	-869
▁religion	-870
▁prostitution	-871
▁이런	-872
▁알	-873
ffirm	-874
now	-875
▁건강	-876
ffirmative	-877
▁국가	-878
ting	-879
urch	-880
anger	-881
▁ur	-882
oc	-883
▁정책	-884
ology	-885
▁중요	-886
▁killing	-887
▁trading	-888
▁tests	-889
▁H	-890
▁clon	-891
▁economic	-892
이며	-893
▁강력	-894
▁private	-895
oup	-896
rap	-897
▁without	-898
nt	-899
▁의무화	-900
ase	-901
ily	-902
▁환경	-903
▁'	-904
▁been	-905
▁such	-906
▁health	-907
ress	-908
▁polygamy	-909
▁ed	-910
▁af	-911
ef	-912
▁-	-913
▁san	-914
라는	-915
ban	-916
▁prot	-917
됩니다	-918
▁parent	-919
라도	-920
▁bel	-921
▁autonomous	-922
omet	-923
제는	-924
▁폭력	-925
▁three	-926
▁jo	-927
▁everyone	-928
▁한다	-929
erty	-930
▁know	-931
▁직	-932
▁외	-933
sist	-934
▁danger	-935
▁retirement	-936
hing	-937
▁등	-938
elib	-939
levision	-940
ades	-941
하며	-942
▁여중생	-943
ro	-944
▁somet	-945
▁urban	-946
▁F	-947
성이	-948
▁affirmative	-949
cient	-950
▁도입	-951
▁cloning	-952
ecut	-953
▁ser	-954
ise	-955
▁provide	-956
▁social	-957
nal	-958
▁단순	-959
▁am	-960
de	-961
ound	-962
▁char	-963
▁celib	-964
ame	-965
qual	-966
▁mult	-967
ik	-968
▁될	-969
▁property	-970
▁또	-971
▁collectivism	-972
▁권	-973
으면	-974
ack	-975
▁현재	-976
▁당	-977
fore	-978
ikip	-979
ble	-980
ikipedia	-981
▁television	-982
▁저는	-983
▁allows	-984
▁farming	-985
▁brings	-986
▁재활	-987
▁rep	-988
▁but	-989
▁근본적인	-990
▁sanctions	-991
▁집	-992
arian	-993
▁execut	-994
▁educ	-995
rogacy	-996
ast	-997
▁spaces	-998
ournal	-999
▁cause	-1000
led	-1001
▁아닙	-1002
gor	-1003
ten	-1004
ates	-1005
rikes	-1006
▁prayer	-1007
▁행동	-1008
ries	-1009
▁lib	-1010
▁초래	-1011
▁금	-1012
iling	-1013
▁these	-1014
▁trade	-1015
▁피해	-1016
▁provid	-1017
amo	-1018
▁media	-1019
▁allowed	-1020
ellect	-1021
▁parades	-1022
▁celibacy	-1023
▁약	-1024
anamo	-1025
민국	-1026
이라는	-1027
▁따	-1028
▁계	-1029
▁ben	-1030
▁crime	-1031
▁factory	-1032
▁안정	-1033
rapment	-1034
amp	-1035
uant	-1036
▁journal	-1037
▁someone	-1038
까지	-1039
▁whaling	-1040
▁있도록	-1041
ious	-1042
▁reg	-1043
▁actors	-1044
▁urbanization	-1045
▁most	-1046
ellectual	-1047
gorith	-1048
▁explor	-1049
▁belie	-1050
▁minors	-1051
uantanamo	-1052
mic	-1053
▁missionary	-1054
▁임	-1055
▁치	-1056
▁how	-1057
...	-1058
▁again	-1059
cessary	-1060
▁very	-1061
▁pride	-1062
igh	-1063
되는	-1064
▁comb	-1065
▁benef	-1066
lection	-1067
▁소년법은	-1068
▁intellectual	-1069
▁많은	-1070
▁지금	-1071
▁해결책	-1072
▁voting	-1073
▁가족	-1074
▁이유로	-1075
▁profiling	-1076
▁함	-1077
▁절	-1078
ads	-1079
ertarian	-1080
▁군	-1081
cus	-1082
▁나라	-1083
▁capital	-1084
reed	-1085
▁아닙니다	-1086
▁대한민국	-1087
▁foster	-1088
▁맞	-1089
▁home	-1090
▁exploration	-1091
▁운영	-1092
▁great	-1093
▁면	-1094
▁vow	-1095
▁combat	-1096
도한	-1097
arn	-1098
▁이번	-1099
▁judicial	-1100
▁bring	-1101
ertarianism	-1102
▁algorith	-1103
▁suic	-1104
▁G	-1105
selves	-1106
▁support	-1107
인의	-1108
▁pos	-1109
▁규	-1110
▁입	-1111
▁targeted	-1112
▁완	-1113
the	-1114
▁폐지는	-1115
▁where	-1116
▁commit	-1117
지고	-1118
학생	-1119
▁take	-1120
부터	-1121
ink	-1122
▁막	-1123
아야	-1124
자의	-1125
▁suicide	-1126
▁students	-1127
▁free	-1128
▁legalized	-1129
▁침	-1130
▁동물	-1131
▁dangerous	-1132
▁허	-1133
so	-1134
▁inform	-1135
▁racial	-1136
omeschool	-1137
▁어려	-1138
▁country	-1139
▁B	-1140
만으로	-1141
▁없습니다	-1142
▁질	-1143
▁new	-1144
part	-1145
▁parents	-1146
▁E	-1147
▁selection	-1148
▁개정	-1149
▁어렵	-1150
▁per	-1151
▁죄	-1152
▁부탁	-1153
▁안녕	-1154
▁충분	-1155
▁often	-1156
▁algorithmic	-1157
▁libertarianism	-1158
▁defenders	-1159
▁최	-1160
rong	-1161
▁다시	-1162
▁ter	-1163
▁변	-1164
▁high	-1165
▁activism	-1166
▁안녕하	-1167
du	-1168
▁상황	-1169
▁incre	-1170
▁보호법은	-1171
▁창	-1172
omeschooling	-1173
ine	-1174
▁then	-1175
는데	-1176
▁활	-1177
cientology	-1178
▁목적	-1179
ents	-1180
▁arms	-1181
어나	-1182
▁침해	-1183
▁책임을	-1184
▁multi	-1185
▁journalism	-1186
▁education	-1187
▁vi	-1188
다면	-1189
▁acc	-1190
▁themselves	-1191
▁증	-1192
이나	-1193
▁어린	-1194
▁op	-1195
▁des	-1196
ertain	-1197
ions	-1198
▁against	-1199
▁함께	-1200
▁정부	-1201
▁well	-1202
reedom	-1203
▁bear	-1204
▁countries	-1205
▁명	-1206
▁다른	-1207
ensation	-1208
▁freedom	-1209
ility	-1210
▁대통령님	-1211
▁feel	-1212
▁lives	-1213
ict	-1214
▁원인	-1215
▁inv	-1216
▁compensation	-1217
▁이는	-1218
▁dads	-1219
▁protect	-1220
리고	-1221
▁판	-1222
대로	-1223
▁less	-1224
▁위험	-1225
▁이를	-1226
▁아닌	-1227
▁comm	-1228
▁법의	-1229
ite	-1230
▁경우	-1231
party	-1232
oy	-1233
▁family	-1234
▁균	-1235
▁athe	-1236
▁큰	-1237
sisted	-1238
▁억	-1239
▁역	-1240
▁opp	-1241
all	-1242
▁현실	-1243
ible	-1244
▁think	-1245
▁was	-1246
ating	-1247
▁helps	-1248
▁place	-1249
ks	-1250
▁ide	-1251
▁development	-1252
▁축	-1253
▁best	-1254
▁필요하	-1255
▁미성	-1256
ention	-1257
ass	-1258
▁executive	-1259
▁거	-1260
▁put	-1261
▁used	-1262
▁creat	-1263
▁group	-1264
교육	-1265
▁fun	-1266
▁viol	-1267
strikes	-1268
uls	-1269
▁proble	-1270
▁atheism	-1271
▁also	-1272
▁M	-1273
▁정말	-1274
read	-1275
▁키	-1276
▁및	-1277
▁abandoned	-1278
▁long	-1279
▁이해하지만	-1280
지는	-1281
▁법이	-1282
other	-1283
에도	-1284
▁choose	-1285
ced	-1286
ulsory	-1287
▁even	-1288
▁under	-1289
▁잔	-1290
▁균형	-1291
▁인해	-1292
▁경제	-1293
~~	-1294
▁compulsory	-1295
이고	-1296
▁its	-1297
▁others	-1298
▁spe	-1299
▁폐지하는	-1300
▁올	-1301
여중생	-1302
ffic	-1303
▁하고	-1304
▁아이들이	-1305
ave	-1306
▁초래할	-1307
▁information	-1308
ull	-1309
▁인권	-1310
▁benefit	-1311
▁사용	-1312
▁종	-1313
▁기본	-1314
▁노동	-1315
▁능	-1316
라고	-1317
ential	-1318
▁좋	-1319
▁우려	-1320
들에게	-1321
▁kid	-1322
▁provides	-1323
les	-1324
ices	-1325
▁요즘	-1326
▁두	-1327
▁체	-1328
▁엄벌	-1329
ower	-1330
▁병	-1331
▁cannot	-1332
ased	-1333
▁necessary	-1334
▁disc	-1335
ffect	-1336
▁확대는	-1337
ince	-1338
었습니다	-1339
시킬	-1340
▁나이	-1341
▁전체	-1342
sure	-1343
ved	-1344
▁effect	-1345
▁cau	-1346
▁부탁드립니다	-1347
ath	-1348
▁choice	-1349
▁부모	-1350
▁잘못을	-1351
▁의료	-1352
▁대신	-1353
▁충분히	-1354
▁과도한	-1355
▁give	-1356
▁벌	-1357
▁cre	-1358
▁법적	-1359
리를	-1360
als	-1361
에는	-1362
▁하며	-1363
▁저지른	-1364
▁검	-1365
▁민	-1366
한다	-1367
이는	-1368
▁val	-1369
▁마음	-1370
▁gen	-1371
▁camp	-1372
서는	-1373
학교	-1374
▁제발	-1375
▁prev	-1376
▁needs	-1377
opul	-1378
▁미래	-1379
▁att	-1380
▁intelligence	-1381
▁same	-1382
▁learn	-1383
▁부산여중생	-1384
등을	-1385
력을	-1386
▁누	-1387
own	-1388
▁그런	-1389
▁crimes	-1390
▁돕	-1391
▁참	-1392
▁"	-1393
▁wrong	-1394
▁청소년들이	-1395
더라도	-1396
▁청소년을	-1397
home	-1398
▁Th	-1399
▁el	-1400
▁live	-1401
▁출	-1402
렇게	-1403
▁미성년	-1404
▁youn	-1405
▁향	-1406
▁부담을	-1407
▁단순한	-1408
▁kids	-1409
▁must	-1410
▁dif	-1411
▁qu	-1412
▁없는	-1413
폭행	-1414
▁diffe	-1415
▁Wh	-1416
▁since	-1417
▁공공	-1418
ile	-1419
▁자유	-1420
▁chan	-1421
▁cost	-1422
▁Y	-1423
▁사례	-1424
▁우선	-1425
▁ris	-1426
으로써	-1427
▁still	-1428
▁close	-1429
▁caus	-1430
▁making	-1431
▁contin	-1432
되고	-1433
▁therefore	-1434
해주	-1435
▁사고	-1436
▁cons	-1437
▁폭행사건	-1438
아이	-1439
랍니다	-1440
ying	-1441
▁북	-1442
▁시민	-1443
▁합법	-1444
▁app	-1445
▁본	-1446
이라고	-1447
▁취	-1448
▁청원합니다	-1449
▁적용	-1450
▁안녕하세요	-1451
나라	-1452
▁church	-1453
▁result	-1454
▁adv	-1455
▁makes	-1456
▁having	-1457
▁things	-1458
rod	-1459
▁해주세요	-1460
▁기준	-1461
▁만들어	-1462
성에	-1463
ody	-1464
ty	-1465
▁가정	-1466
ural	-1467
▁bad	-1468
▁발생	-1469
▁inter	-1470
▁popul	-1471
문에	-1472
▁poor	-1473
▁포	-1474
재인	-1475
▁공감	-1476
▁엄격	-1477
▁장기적으로	-1478
십시	-1479
▁뿐	-1480
▁certain	-1481
▁ensure	-1482
▁힘	-1483
ues	-1484
▁같은	-1485
ense	-1486
▁저지르	-1487
▁처벌이	-1488
▁투	-1489
▁famil	-1490
▁따라	-1491
▁nat	-1492
▁표	-1493
air	-1494
▁문제를	-1495
▁육	-1496
▁이용	-1497
▁장치	-1498
▁보육	-1499
▁abolition	-1500
이다	-1501
rug	-1502
▁지속	-1503
imes	-1504
▁enc	-1505
▁대응	-1506
지않	-1507
▁It	-1508
▁eas	-1509
▁안전을	-1510
▁payday	-1511
▁men	-1512
hip	-1513
져야	-1514
▁정당	-1515
ually	-1516
네요	-1517
▁lot	-1518
cussion	-1519
▁인간	-1520
▁co	-1521
▁wikipedia	-1522
▁med	-1523
▁pract	-1524
▁무시	-1525
▁rem	-1526
▁기여할	-1527
▁enough	-1528
▁인상	-1529
▁꼭	-1530
▁문재인	-1531
▁regul	-1532
▁uniforms	-1533
▁추	-1534
고있	-1535
▁ob	-1536
▁unf	-1537
▁away	-1538
ys	-1539
시켜	-1540
▁이어	-1541
▁사회에	-1542
▁물	-1543
red	-1544
▁합법화	-1545
▁규제	-1546
▁향상	-1547
▁im	-1548
▁another	-1549
ok	-1550
▁주장	-1551
▁보호를	-1552
▁inst	-1553
▁왜	-1554
도로	-1555
▁발전	-1556
▁접근이	-1557
대한	-1558
ind	-1559
▁동일	-1560
▁criminals	-1561
we	-1562
ick	-1563
ically	-1564
▁save	-1565
▁families	-1566
▁복지	-1567
▁키우	-1568
▁않습니다	-1569
▁Foster	-1570
pe	-1571
▁지역	-1572
onment	-1573
gr	-1574
▁di	-1575
▁살인	-1576
▁있으	-1577
▁다양	-1578
까요	-1579
▁em	-1580
▁범죄의	-1581
ather	-1582
▁대해	-1583
rodu	-1584
▁find	-1585
vir	-1586
▁진정한	-1587
▁encour	-1588
▁oppose	-1589
▁정보	-1590
▁emp	-1591
--	-1592
erest	-1593
▁saf	-1594
▁폐지를	-1595
▁produ	-1596
▁해결책이	-1597
면서	-1598
이상	-1599
▁av	-1600
▁교사	-1601
▁금지	-1602
▁생명	-1603
▁판단	-1604
ford	-1605
▁식	-1606
▁않는	-1607
▁charity	-1608
▁ph	-1609
▁commun	-1610
▁decision	-1611
드시	-1612
들도	-1613
rib	-1614
ne	-1615
▁동의	-1616
▁엄중	-1617
▁초등	-1618
▁hard	-1619
▁interest	-1620
▁개선이	-1621
▁청소년에게	-1622
▁담	-1623
▁cult	-1624
▁never	-1625
▁변화	-1626
하므로	-1627
▁Int	-1628
▁reas	-1629
▁offence	-1630
▁surrogacy	-1631
▁entrapment	-1632
▁된	-1633
▁잔인	-1634
▁poss	-1635
vironment	-1636
기를	-1637
▁존재	-1638
▁방지를	-1639
▁업	-1640
▁발달	-1641
▁저해	-1642
cept	-1643
▁범죄에	-1644
▁고통	-1645
▁대기	-1646
▁허용	-1647
▁(	-1648
기에	-1649
▁있다는	-1650
▁것입니다	-1651
▁really	-1652
▁모두	-1653
▁afford	-1654
▁unfair	-1655
ages	-1656
▁Dis	-1657
▁contr	-1658
▁광	-1659
▁주세요	-1660
▁sometimes	-1661
▁mo	-1662
▁효율	-1663
▁deter	-1664
▁finan	-1665
cel	-1666
▁In	-1667
ning	-1668
▁ext	-1669
▁갈	-1670
▁개인의	-1671
▁양	-1672
이집	-1673
▁결과	-1674
▁해야	-1675
▁늘	-1676
▁근무	-1677
▁재정	-1678
▁원인을	-1679
ail	-1680
▁문제가	-1681
▁needed	-1682
▁Guantanamo	-1683
▁극	-1684
▁시간	-1685
▁강력한	-1686
▁environment	-1687
loy	-1688
▁청소년보호법은	-1689
ra	-1690
▁inn	-1691
▁something	-1692
시간	-1693
oth	-1694
▁실질	-1695
만으로는	-1696
▁편	-1697
▁create	-1698
▁얼	-1699
▁sit	-1700
▁opt	-1701
▁성인과	-1702
ready	-1703
▁already	-1704
▁설	-1705
▁form	-1706
▁넘	-1707
거나	-1708
▁thr	-1709
▁바랍니다	-1710
ket	-1711
▁방지와	-1712
▁fund	-1713
less	-1714
▁dem	-1715
▁problems	-1716
▁Discussion	-1717
▁Intelligence	-1718
▁플	-1719
▁글	-1720
▁난	-1721
ists	-1722
▁Pay	-1723
▁교육의	-1724
▁기술	-1725
▁job	-1726
▁증가	-1727
▁grow	-1728
▁Child	-1729
▁detention	-1730
▁반드시	-1731
▁L	-1732
▁삶	-1733
▁경제적	-1734
▁Payday	-1735
▁크	-1736
▁후	-1737
▁gener	-1738
▁my	-1739
▁정의	-1740
훼손	-1741
▁많이	-1742
rimin	-1743
▁means	-1744
▁북한	-1745
▁엄격한	-1746
▁효과적	-1747
▁cancel	-1748
▁공감하지만	-1749
▁요구	-1750
▁체계	-1751
▁재활을	-1752
▁핵	-1753
ner	-1754
▁차량	-1755
▁real	-1756
quality	-1757
권을	-1758
▁선택	-1759
▁each	-1760
▁happ	-1761
▁앞	-1762
비스	-1763
▁억제	-1764
▁강화하는	-1765
▁ye	-1766
▁now	-1767
▁입니다	-1768
▁스	-1769
하려	-1770
▁sm	-1771
▁반복	-1772
ures	-1773
▁하지	-1774
ward	-1775
▁different	-1776
▁minor	-1777
▁continue	-1778
▁태	-1779
무원	-1780
int	-1781
▁individuals	-1782
처벌	-1783
▁introdu	-1784
▁음	-1785
▁복귀	-1786
▁조치	-1787
▁see	-1788
▁going	-1789
▁매	-1790
▁Bay	-1791
▁bus	-1792
겠습니다	-1793
▁확대하면	-1794
▁homeschooling	-1795
▁돌	-1796
▁만들	-1797
▁장애	-1798
▁주민	-1799
▁anim	-1800
▁vote	-1801
▁belief	-1802
▁iss	-1803
▁점을	-1804
▁치료	-1805
▁car	-1806
iness	-1807
▁언	-1808
▁religious	-1809
스템	-1810
▁중심	-1811
▁young	-1812
▁Sur	-1813
▁dri	-1814
폭력	-1815
▁표현	-1816
▁gives	-1817
▁피해자의	-1818
▁personal	-1819
향을	-1820
ror	-1821
▁As	-1822
리적	-1823
▁않은	-1824
▁완화	-1825
▁prevent	-1826
▁휴	-1827
▁num	-1828
▁pot	-1829
▁drug	-1830
resent	-1831
▁Children	-1832
▁Surrogacy	-1833
▁받을	-1834
▁introduce	-1835
ives	-1836
▁financial	-1837
▁했	-1838
▁인식	-1839
wise	-1840
가는	-1841
ween	-1842
▁due	-1843
▁state	-1844
▁between	-1845
▁discrimin	-1846
▁친	-1847
▁ro	-1848
▁목적으로	-1849
▁보호법을	-1850
▁경찰	-1851
▁일부	-1852
ases	-1853
pportun	-1854
▁opportun	-1855
어야	-1856
▁저희	-1857
▁otherwise	-1858
▁되어	-1859
▁서비스	-1860
lud	-1861
▁So	-1862
▁국민의	-1863
▁부담이	-1864
▁why	-1865
전히	-1866
▁age	-1867
▁treat	-1868
▁논	-1869
▁잡	-1870
사를	-1871
수있	-1872
▁legalizing	-1873
▁문화	-1874
ments	-1875
▁잘못된	-1876
함으로써	-1877
▁resp	-1878
▁were	-1879
▁악용하는	-1880
▁구조	-1881
▁생활	-1882
▁inf	-1883
▁become	-1884
▁철	-1885
▁시스템	-1886
thing	-1887
▁conf	-1888
만이	-1889
소득	-1890
▁제공	-1891
하기보다는	-1892
▁access	-1893
▁employ	-1894
▁through	-1895
▁bay	-1896
▁situ	-1897
▁가능성을	-1898
▁미성년자	-1899
▁심각한	-1900
▁resour	-1901
▁fut	-1902
▁아이를	-1903
▁채	-1904
▁활동	-1905
▁add	-1906
▁prom	-1907
▁given	-1908
▁guantanamo	-1909
▁Ent	-1910
▁death	-1911
▁might	-1912
▁market	-1913
▁organs	-1914
되지	-1915
부모	-1916
ted	-1917
ering	-1918
▁소년법을	-1919
▁Wikipedia	-1920
▁potential	-1921
▁ty	-1922
▁자율	-1923
▁dest	-1924
▁rec	-1925
▁jobs	-1926
▁Entrapment	-1927
▁능력	-1928
▁mat	-1929
리는	-1930
elf	-1931
뉴스	-1932
▁요청	-1933
▁더이상	-1934
▁show	-1935
▁sc	-1936
▁보고	-1937
▁control	-1938
▁subsidized	-1939
▁scientology	-1940
▁O	-1941
vers	-1942
ak	-1943
▁그리고	-1944
▁주거	-1945
▁운전	-1946
▁What	-1947
pl	-1948
▁sec	-1949
▁공무원	-1950
ts	-1951
ade	-1952
use	-1953
십시오	-1954
oral	-1955
▁self	-1956
▁위협	-1957
▁음주	-1958
▁impro	-1959
ier	-1960
▁같습니다	-1961
▁future	-1962
▁축소	-1963
▁suff	-1964
▁gu	-1965
▁부족	-1966
▁전환	-1967
습니까	-1968
▁cor	-1969
▁범죄자	-1970
▁risk	-1971
▁게	-1972
▁bu	-1973
▁tw	-1974
▁광고	-1975
▁돕는	-1976
▁god	-1977
▁sim	-1978
▁일어나	-1979
ensive	-1980
▁Scientology	-1981
▁싶	-1982
▁범죄가	-1983
▁지원을	-1984
▁business	-1985
ied	-1986
ient	-1987
▁Church	-1988
▁아직	-1989
▁없이	-1990
용을	-1991
▁피해를	-1992
▁doing	-1993
▁population	-1994
▁유지	-1995
▁어리	-1996
▁정치	-1997
▁존중	-1998
▁pris	-1999
▁무서	-2000
ways	-2001
▁numb	-2002
▁believe	-2003
▁근로	-2004
▁자신	-2005
▁leads	-2006
평등을	-2007
▁day	-2008
▁아이들을	-2009
▁해서	-2010
▁mean	-2011
없이	-2012
▁제대로	-2013
▁fair	-2014
??	-2015
▁N	-2016
▁beh	-2017
▁based	-2018
▁느	-2019
▁더욱	-2020
▁절차	-2021
▁때문에	-2022
onger	-2023
▁rather	-2024
▁increase	-2025
▁일반	-2026
▁promot	-2027
▁제도입니다	-2028
▁작	-2029
나요	-2030
iew	-2031
▁mur	-2032
▁됩니다	-2033
▁받아야	-2034
▁play	-2035
▁온	-2036
▁공정	-2037
▁ideas	-2038
av	-2039
▁세금	-2040
▁Char	-2041
▁assisted	-2042
▁effective	-2043
▁달	-2044
자는	-2045
ead	-2046
▁실현	-2047
▁특정	-2048
▁필수	-2049
▁Assisted	-2050
시키	-2051
▁이러	-2052
bt	-2053
▁커	-2054
▁관련	-2055
▁phys	-2056
▁serv	-2057
▁power	-2058
▁terror	-2059
▁반성	-2060
ands	-2061
▁imm	-2062
▁우리나라	-2063
ges	-2064
▁ment	-2065
▁피해자가	-2066
▁subsidizing	-2067
▁있을	-2068
▁war	-2069
▁groups	-2070
▁practice	-2071
▁lar	-2072
ask	-2073
▁저질	-2074
봅니다	-2075
▁tax	-2076
▁polit	-2077
▁개혁	-2078
llow	-2079
▁바람	-2080
▁doesn	-2081
▁includ	-2082
가요	-2083
▁done	-2084
▁필요한	-2085
▁한다고	-2086
▁[	-2087
▁용	-2088
▁고용	-2089
으로서	-2090
ness	-2091
▁two	-2092
▁효과적으로	-2093
▁고려해	-2094
▁level	-2095
▁causes	-2096
▁issues	-2097
▁길	-2098
▁화	-2099
정을	-2100
▁단계	-2101
▁엄마	-2102
▁살아	-2103
▁어른	-2104
▁product	-2105
▁타	-2106
▁hur	-2107
▁old	-2108
▁이렇게	-2109
▁animals	-2110
▁동일한	-2111
▁getting	-2112
▁낳	-2113
교통	-2114
▁chance	-2115
▁Homeschooling	-2116
보험	-2117
▁reason	-2118
eri	-2119
▁invol	-2120
▁today	-2121
▁es	-2122
한다고	-2123
▁사건을	-2124
▁back	-2125
▁resources	-2126
oss	-2127
된다	-2128
▁들어	-2129
▁우려가	-2130
▁medical	-2131
▁애	-2132
▁이상	-2133
▁한국	-2134
▁해도	-2135
▁always	-2136
리가	-2137
▁남성	-2138
▁이루	-2139
▁제가	-2140
▁협	-2141
▁pur	-2142
회의	-2143
▁인한	-2144
quire	-2145
▁R	-2146
orm	-2147
▁실명	-2148
청소년	-2149
▁instead	-2150
ics	-2151
▁연령	-2152
▁출산	-2153
old	-2154
▁adult	-2155
교사	-2156
itiz	-2157
▁바람직	-2158
▁else	-2159
▁using	-2160
▁폐지보다는	-2161
▁Social	-2162
▁낮	-2163
atch	-2164
▁실질적인	-2165
▁예방과	-2166
▁위험이	-2167
▁citiz	-2168
▁행위	-2169
▁order	-2170
▁working	-2171
▁cr	-2172
▁누구	-2173
▁복귀를	-2174
gether	-2175
▁equal	-2176
▁amount	-2177
▁together	-2178
생활	-2179
지원	-2180
▁innoc	-2181
▁모르	-2182
하려는	-2183
▁교육을	-2184
itions	-2185
▁아무	-2186
▁훼손	-2187
▁represent	-2188
itable	-2189
▁donate	-2190
▁사실	-2191
▁dise	-2192
▁보호하기	-2193
▁산	-2194
▁sk	-2195
▁있지만	-2196
▁행동을	-2197
tle	-2198
▁중심의	-2199
▁down	-2200
▁before	-2201
▁있게	-2202
▁창의	-2203
▁성장을	-2204
▁평가	-2205
▁보호받	-2206
',	-2207
▁.	-2208
▁sub	-2209
▁단순히	-2210
▁침해할	-2211
▁어린이집	-2212
▁폐지해야	-2213
▁대중	-2214
▁창작	-2215
▁dist	-2216
▁relations	-2217
▁의견	-2218
▁change	-2219
▁forced	-2220
망이	-2221
이지	-2222
▁시대	-2223
▁알고	-2224
▁약화	-2225
arch	-2226
▁중요한	-2227
▁follow	-2228
▁company	-2229
ign	-2230
▁또한	-2231
▁받는	-2232
ject	-2233
ute	-2234
▁계속	-2235
!!!!	-2236
▁어려움	-2237
▁청소년이라는	-2238
▁beliefs	-2239
▁호	-2240
시고	-2241
ought	-2242
▁tech	-2243
▁효과적인	-2244
▁일이	-2245
▁형평	-2246
▁있으므로	-2247
▁deser	-2248
▁동의하지만	-2249
▁longer	-2250
▁육아	-2251
▁영향을	-2252
▁prison	-2253
▁걱	-2254
▁세상	-2255
ends	-2256
▁nothing	-2257
▁대중교통	-2258
▁while	-2259
복무	-2260
▁방향	-2261
▁사형	-2262
▁표현의	-2263
▁body	-2264
▁start	-2265
▁advant	-2266
▁benefits	-2267
규직	-2268
랫폼	-2269
사고	-2270
▁소비	-2271
▁전문	-2272
▁하여	-2273
▁플랫폼	-2274
▁필요하다	-2275
▁around	-2276
▁어떻	-2277
▁아이들	-2278
ances	-2279
lle	-2280
▁고려한	-2281
▁ille	-2282
▁innocent	-2283
▁교통	-2284
▁해주	-2285
▁이러한	-2286
▁view	-2287
▁illegal	-2288
제를	-2289
▁techn	-2290
▁workers	-2291
▁wish	-2292
이라도	-2293
같은	-2294
처럼	-2295
▁부정	-2296
▁did	-2297
force	-2298
▁cur	-2299
▁set	-2300
▁Save	-2301
▁natural	-2302
치원	-2303
▁expensive	-2304
▁국방	-2305
▁anyone	-2306
것이	-2307
▁업무	-2308
▁것이며	-2309
▁권리를	-2310
▁한다는	-2311
▁full	-2312
▁촉	-2313
▁법은	-2314
▁dep	-2315
▁건강한	-2316
dated	-2317
도적	-2318
urn	-2319
▁청년	-2320
에서는	-2321
▁sent	-2322
▁murder	-2323
▁threat	-2324
▁bl	-2325
▁주기	-2326
▁ear	-2327
▁maj	-2328
▁require	-2329
동산	-2330
▁자녀	-2331
▁이어질	-2332
▁sure	-2333
ression	-2334
▁option	-2335
▁문제는	-2336
▁plan	-2337
화를	-2338
▁가해	-2339
▁민주	-2340
십니까	-2341
▁tra	-2342
▁trans	-2343
▁열	-2344
없는	-2345
▁가중	-2346
▁cru	-2347
▁donations	-2348
▁relationship	-2349
▁fri	-2350
▁major	-2351
ern	-2352
▁open	-2353
▁ability	-2354
▁얼마	-2355
▁죄를	-2356
▁점에서	-2357
▁simp	-2358
▁지방	-2359
▁Don	-2360
▁어떻게	-2361
▁coup	-2362
▁speci	-2363
eth	-2364
▁삶의	-2365
▁참여	-2366
▁emot	-2367
▁avail	-2368
▁spend	-2369
▁새	-2370
ond	-2371
▁높아	-2372
▁lit	-2373
ately	-2374
▁abuse	-2375
▁contrib	-2376
▁violence	-2377
ft	-2378
▁혼	-2379
▁희	-2380
제로	-2381
▁없어	-2382
이지만	-2383
▁had	-2384
▁let	-2385
▁sol	-2386
▁개선을	-2387
▁엄중한	-2388
▁이루어	-2389
▁schools	-2390
▁끔	-2391
duc	-2392
ident	-2393
ocr	-2394
▁개인	-2395
▁국정	-2396
▁공정한	-2397
했습니다	-2398
aries	-2399
▁teach	-2400
▁likely	-2401
시에	-2402
gram	-2403
▁far	-2404
▁mod	-2405
ising	-2406
▁rest	-2407
its	-2408
ven	-2409
▁심화	-2410
▁청소년들의	-2411
▁마련	-2412
▁thing	-2413
▁experi	-2414
▁신체	-2415
▁ill	-2416
▁made	-2417
▁partic	-2418
▁program	-2419
osed	-2420
▁청소년보호법폐지	-2421
일이	-2422
정이	-2423
▁하나	-2424
ection	-2425
▁소년법폐지	-2426
▁외국	-2427
here	-2428
▁term	-2429
▁학생들이	-2430
▁citizens	-2431
하다	-2432
▁주는	-2433
▁mental	-2434
▁자기	-2435
▁goes	-2436
▁sour	-2437
▁improve	-2438
한다는	-2439
▁가능성이	-2440
▁폐지되어야	-2441
▁useful	-2442
te	-2443
▁impact	-2444
주의	-2445
put	-2446
▁담배	-2447
ield	-2448
▁키우는	-2449
▁기본소득	-2450
▁small	-2451
ational	-2452
▁outdated	-2453
ood	-2454
이므로	-2455
▁look	-2456
하다는	-2457
ender	-2458
▁news	-2459
▁rece	-2460
▁areas	-2461
금을	-2462
로서	-2463
업의	-2464
▁불안	-2465
방망이	-2466
ences	-2467
uable	-2468
▁독	-2469
식을	-2470
인지	-2471
▁병역	-2472
다운	-2473
시는	-2474
▁자체	-2475
▁정신	-2476
▁그들의	-2477
▁안전한	-2478
▁remo	-2479
▁학습	-2480
▁You	-2481
▁너무나	-2482
▁abolished	-2483
혜택	-2484
흡연	-2485
▁이미	-2486
irst	-2487
▁advantage	-2488
▁것을	-2489
▁않을	-2490
▁집단	-2491
▁say	-2492
▁cond	-2493
조건	-2494
▁wast	-2495
▁폐지하면	-2496
▁솜	-2497
▁끔찍	-2498
▁abus	-2499
▁large	-2500
▁청소년법은	-2501
▁available	-2502
▁대체	-2503
▁벌을	-2504
▁decide	-2505
▁잡힌	-2506
▁넘어	-2507
▁전용	-2508
▁str	-2509
▁환경을	-2510
▁고려해야	-2511
▁exist	-2512
▁possible	-2513
▁쓰	-2514
▁무섭	-2515
▁행정	-2516
▁How	-2517
▁neg	-2518
▁도입은	-2519
폭행사건	-2520
▁after	-2521
▁돈	-2522
per	-2523
▁저해할	-2524
stand	-2525
▁무시하는	-2526
▁number	-2527
▁proper	-2528
▁똑	-2529
▁군복무	-2530
▁norm	-2531
▁force	-2532
▁party	-2533
▁living	-2534
▁봐	-2535
▁죽	-2536
▁지나	-2537
▁확보	-2538
▁organization	-2539
▁bi	-2540
▁게임	-2541
▁대해서	-2542
▁giving	-2543
▁관리	-2544
▁bab	-2545
▁사례가	-2546
▁emotion	-2547
▁관계	-2548
▁안타	-2549
▁보호와	-2550
▁decisions	-2551
▁기능	-2552
▁목표	-2553
▁평등	-2554
▁목적은	-2555
하더라도	-2556
사회	-2557
▁철저	-2558
▁bas	-2559
▁low	-2560
▁자유를	-2561
althy	-2562
▁솜방망이	-2563
대를	-2564
▁차별	-2565
▁해칠	-2566
▁vul	-2567
▁love	-2568
▁안됩니다	-2569
▁vulner	-2570
▁준	-2571
▁감독	-2572
▁결정	-2573
▁연구	-2574
▁인정	-2575
▁dam	-2576
▁quality	-2577
▁bod	-2578
▁ess	-2579
▁tool	-2580
▁bo	-2581
▁감정	-2582
▁성별	-2583
▁신뢰	-2584
▁않고	-2585
▁suc	-2586
▁both	-2587
▁taking	-2588
▁process	-2589
▁involved	-2590
것을	-2591
cially	-2592
cy	-2593
rop	-2594
▁인도적	-2595
▁safer	-2596
▁되지	-2597
▁사교육	-2598
▁vulnerable	-2599
▁않도록	-2600
▁unne	-2601
▁어렵습니다	-2602
▁income	-2603
▁allowing	-2604
▁valuable	-2605
▁실명제	-2606
▁장애인	-2607
▁debt	-2608
▁opin	-2609
▁많습니다	-2610
▁저지르는	-2611
도가	-2612
부가	-2613
▁고령	-2614
▁인천	-2615
....	-2616
body	-2617
ific	-2618
itive	-2619
▁first	-2620
▁years	-2621
▁simply	-2622
▁actually	-2623
▁discrimination	-2624
도를	-2625
익을	-2626
ees	-2627
▁활용	-2628
하다고	-2629
imin	-2630
▁가능한	-2631
▁가지고	-2632
▁conc	-2633
▁little	-2634
▁learning	-2635
기는	-2636
원의	-2637
할수	-2638
▁유전	-2639
ther	-2640
▁의무화는	-2641
▁press	-2642
▁중요하지만	-2643
▁안보	-2644
▁줄어	-2645
았습니다	-2646
▁idea	-2647
▁중요합니다	-2648
▁교정	-2649
▁기간	-2650
▁되는	-2651
▁혜택	-2652
▁위해서는	-2653
▁글을	-2654
▁보다	-2655
▁run	-2656
ether	-2657
▁상황에서	-2658
pecially	-2659
▁답	-2660
밖에	-2661
▁저하	-2662
▁mon	-2663
▁필요하다는	-2664
▁limited	-2665
▁종합	-2666
▁통합	-2667
ited	-2668
▁gun	-2669
▁democr	-2670
기가	-2671
emb	-2672
▁이동	-2673
▁조직	-2674
▁purp	-2675
고있습니다	-2676
▁stand	-2677
▁especially	-2678
▁볼	-2679
▁프	-2680
▁가격	-2681
▁역할	-2682
▁bull	-2683
▁suffering	-2684
▁날	-2685
▁속	-2686
▁뉴스	-2687
▁반영	-2688
자에게	-2689
~~~~	-2690
▁범	-2691
▁차단	-2692
▁최근	-2693
▁결과를	-2694
▁보호하는	-2695
▁safety	-2696
▁current	-2697
ale	-2698
ised	-2699
self	-2700
▁redu	-2701
▁sell	-2702
▁cruel	-2703
fficult	-2704
▁banning	-2705
▁donation	-2706
▁difficult	-2707
▁몇	-2708
로운	-2709
운전	-2710
▁지켜	-2711
▁형사	-2712
▁나이가	-2713
▁ways	-2714
fficient	-2715
▁바로	-2716
▁받아	-2717
▁영어	-2718
ivity	-2719
▁기여한다	-2720
▁creates	-2721
▁반대	-2722
▁어렵고	-2723
것은	-2724
▁부여	-2725
겁니다	-2726
▁없으며	-2727
▁pain	-2728
▁원합니다	-2729
▁입장	-2730
▁gender	-2731
▁일을	-2732
▁일자	-2733
▁무조건	-2734
▁quick	-2735
▁police	-2736
▁situations	-2737
▁빠	-2738
인데	-2739
▁도움	-2740
▁tak	-2741
idents	-2742
▁들	-2743
▁시작	-2744
▁조기	-2745
▁cases	-2746
▁explo	-2747
▁파	-2748
평등	-2749
▁직접	-2750
▁진입	-2751
▁tal	-2752
illed	-2753
지를	-2754
ope	-2755
▁흡연	-2756
▁동시에	-2757
▁사람이	-2758
▁come	-2759
▁harmful	-2760
▁problem	-2761
▁anything	-2762
xt	-2763
건비	-2764
자를	-2765
파트	-2766
▁사이	-2767
▁tri	-2768
atever	-2769
▁times	-2770
▁helping	-2771
당한	-2772
▁말씀	-2773
▁봅니다	-2774
▁장기적인	-2775
▁takes	-2776
▁destro	-2777
▁invest	-2778
▁Charity	-2779
시기	-2780
▁분명	-2781
▁일시	-2782
▁중국	-2783
ater	-2784
▁청소년도	-2785
▁focus	-2786
▁lower	-2787
▁sense	-2788
▁adults	-2789
▁essential	-2790
▁술	-2791
자가	-2792
!!!	-2793
▁상태	-2794
----	-2795
▁supp	-2796
▁강화해야	-2797
▁field	-2798
▁respons	-2799
▁community	-2800
납니다	-2801
대통령	-2802
▁사건이	-2803
▁task	-2804
▁elimin	-2805
▁encourage	-2806
있는	-2807
avi	-2808
▁그래	-2809
▁서민	-2810
▁top	-2811
▁여성의	-2812
▁가해자가	-2813
▁whole	-2814
르게	-2815
til	-2816
▁사법	-2817
▁indust	-2818
▁whatever	-2819
▁understand	-2820
▁opportunity	-2821
▁짓	-2822
기도	-2823
▁가장	-2824
▁비판	-2825
▁질을	-2826
입니까	-2827
▁hum	-2828
▁그런데	-2829
▁found	-2830
▁청소년법을	-2831
▁political	-2832
▁별	-2833
사람	-2834
치를	-2835
oid	-2836
▁inh	-2837
▁학생들의	-2838
▁청소년보호법을	-2839
be	-2840
▁박	-2841
▁fur	-2842
▁의무화하면	-2843
▁behavi	-2844
수록	-2845
전거	-2846
▁수단	-2847
ability	-2848
▁happen	-2849
▁immoral	-2850
▁serious	-2851
▁갖	-2852
장의	-2853
▁교육적	-2854
▁사회의	-2855
▁있다고	-2856
▁memb	-2857
▁rese	-2858
▁accept	-2859
▁reduce	-2860
▁healthy	-2861
▁unnecessary	-2862
▁각	-2863
와대	-2864
▁기반	-2865
▁수준	-2866
▁있고	-2867
▁의무를	-2868
wards	-2869
ang	-2870
▁피해자를	-2871
▁rates	-2872
▁higher	-2873
▁deserve	-2874
▁constitution	-2875
▁단체	-2876
원에서	-2877
pect	-2878
▁자전거	-2879
▁정규직	-2880
▁회복을	-2881
ledge	-2882
▁source	-2883
들과	-2884
▁강제	-2885
듭니다	-2886
▁donating	-2887
▁dr	-2888
▁걱정	-2889
cing	-2890
▁국회의	-2891
▁taken	-2892
▁waste	-2893
▁further	-2894
▁strikes	-2895
▁믿	-2896
▁강릉	-2897
된다고	-2898
▁her	-2899
▁his	-2900
▁list	-2901
▁thus	-2902
▁우선되어야	-2903
지요	-2904
ord	-2905
▁축구	-2906
▁사건의	-2907
▁엄벌보다는	-2908
▁bodies	-2909
원은	-2910
▁sl	-2911
▁whether	-2912
치는	-2913
▁권력	-2914
▁촉진	-2915
▁won	-2916
▁사건에	-2917
▁위해서	-2918
▁불평등을	-2919
▁안녕하십니까	-2920
▁댓	-2921
행을	-2922
▁보완	-2923
ruct	-2924
▁앞으로	-2925
▁dire	-2926
▁unhe	-2927
▁wants	-2928
▁regard	-2929
▁physical	-2930
▁존경	-2931
ills	-2932
ract	-2933
▁hurt	-2934
estion	-2935
▁drugs	-2936
실험	-2937
▁기존	-2938
▁노출	-2939
▁여러	-2940
ider	-2941
였습니다	-2942
▁proven	-2943
▁unhealthy	-2944
▁김	-2945
사가	-2946
▁받지	-2947
▁성숙	-2948
▁위축	-2949
▁임신	-2950
▁종교	-2951
▁평생	-2952
▁하루	-2953
urity	-2954
▁research	-2955
▁마땅	-2956
ouse	-2957
▁bre	-2958
▁humans	-2959
▁receive	-2960
안을	-2961
원을	-2962
▁대책	-2963
▁운동	-2964
▁적응	-2965
▁big	-2966
▁어리다는	-2967
▁greater	-2968
br	-2969
▁백	-2970
원이	-2971
▁감소	-2972
▁과거	-2973
▁명예	-2974
▁보면	-2975
▁일어	-2976
▁진행	-2977
▁허위	-2978
▁청와대	-2979
▁mass	-2980
▁inhuman	-2981
▁accidents	-2982
▁드	-2983
▁월	-2984
감을	-2985
장을	-2986
▁국민이	-2987
▁해결이	-2988
▁좋겠습니다	-2989
▁U	-2990
력이	-2991
심을	-2992
▁적절	-2993
▁신체적	-2994
▁잔인한	-2995
있습니다	-2996
▁places	-2997
▁protected	-2998
▁걸	-2999
수의	-3000
▁fl	-3001
▁기후	-3002
▁만큼	-3003
▁법인	-3004
▁loo	-3005
▁교육이	-3006
ified	-3007
▁되었습니다	-3008
▁comple	-3009
▁economy	-3010
▁parties	-3011
▁knowledge	-3012
▁야	-3013
분별	-3014
rem	-3015
▁도와	-3016
▁유발	-3017
▁장려	-3018
▁절대	-3019
▁미래를	-3020
▁생명을	-3021
▁정치적	-3022
▁easier	-3023
▁tradition	-3024
▁진단	-3025
utes	-3026
▁반성과	-3027
▁완전히	-3028
▁저질렀	-3029
▁헌	-3030
가지	-3031
되면	-3032
ibly	-3033
▁few	-3034
▁고통을	-3035
▁정당한	-3036
▁다양성을	-3037
▁religions	-3038
▁급	-3039
▁시급	-3040
▁의미	-3041
에서의	-3042
▁woman	-3043
▁그에	-3044
▁돕기	-3045
▁맞는	-3046
▁leg	-3047
▁지원이	-3048
▁kind	-3049
▁normal	-3050
▁whales	-3051
▁services	-3052
▁떨	-3053
▁국제	-3054
▁분석	-3055
▁없다	-3056
▁조장	-3057
▁투명	-3058
▁능력을	-3059
▁여전히	-3060
▁보호법이	-3061
▁막기	-3062
▁제고	-3063
▁ass	-3064
▁중학생	-3065
uring	-3066
▁deal	-3067
▁ever	-3068
▁turn	-3069
▁type	-3070
▁costs	-3071
▁members	-3072
▁committed	-3073
▁ce	-3074
▁검찰	-3075
▁이제	-3076
▁얼마나	-3077
▁earn	-3078
▁초등학교	-3079
▁처벌보다는	-3080
▁profess	-3081
▁industry	-3082
▁beneficial	-3083
▁conditions	-3084
▁딸	-3085
로그	-3086
화와	-3087
uge	-3088
▁그렇	-3089
▁어긋	-3090
하는데	-3091
side	-3092
▁어려운	-3093
▁affect	-3094
▁버	-3095
▁동등	-3096
▁영업	-3097
▁정당화	-3098
▁baby	-3099
▁stre	-3100
▁agree	-3101
▁reduc	-3102
▁꿈	-3103
용이	-3104
중한	-3105
▁배출	-3106
▁분노	-3107
▁목적을	-3108
겠습니까	-3109
▁nature	-3110
어린	-3111
▁높일	-3112
rupt	-3113
▁개선과	-3114
imate	-3115
▁peace	-3116
▁장치입니다	-3117
▁opportunities	-3118
▁눈	-3119
사의	-3120
par	-3121
▁면죄	-3122
▁보육료	-3123
▁gain	-3124
▁obes	-3125
▁paid	-3126
▁학교폭력	-3127
▁alter	-3128
▁avoid	-3129
▁deterrent	-3130
지도	-3131
▁인재	-3132
▁전반	-3133
▁isn	-3134
▁rul	-3135
▁폐지가	-3136
▁aren	-3137
▁loan	-3138
▁keeps	-3139
▁대한민국의	-3140
만큼	-3141
전에	-3142
den	-3143
ped	-3144
▁말이	-3145
▁포함	-3146
ants	-3147
▁높이는	-3148
▁철저한	-3149
▁음주운전	-3150
▁examp	-3151
▁remain	-3152
▁friends	-3153
erg	-3154
ets	-3155
wor	-3156
▁원칙	-3157
▁bor	-3158
것입니다	-3159
▁안정적인	-3160
▁피해자와	-3161
▁judge	-3162
▁효과적입니다	-3163
▁technology	-3164
같이	-3165
라인	-3166
주는	-3167
▁결혼	-3168
▁과도	-3169
▁형량	-3170
▁loc	-3171
▁try	-3172
▁인권을	-3173
▁줄이는	-3174
▁They	-3175
▁easy	-3176
▁intern	-3177
▁executives	-3178
주택	-3179
▁때문	-3180
▁바뀌	-3181
▁hold	-3182
▁pressure	-3183
▁&	-3184
▁나오	-3185
▁도로	-3186
▁포기	-3187
▁profit	-3188
▁inhumane	-3189
▁경험	-3190
▁근거	-3191
▁생산	-3192
▁아동	-3193
▁다양한	-3194
▁전체의	-3195
▁matter	-3196
▁청소년법폐지	-3197
▁results	-3198
ju	-3199
▁코	-3200
▁페	-3201
▁개입	-3202
▁수는	-3203
▁사생활	-3204
▁mess	-3205
▁older	-3206
ibility	-3207
▁express	-3208
▁항	-3209
▁군대	-3210
▁그냥	-3211
▁eat	-3212
▁아파트	-3213
▁entertain	-3214
▁$	-3215
성은	-3216
row	-3217
▁간의	-3218
▁경쟁	-3219
▁과정	-3220
▁댓글	-3221
▁받고	-3222
▁식량	-3223
▁점점	-3224
▁주택	-3225
line	-3226
▁success	-3227
▁minorities	-3228
부의	-3229
세는	-3230
▁방식	-3231
▁보조	-3232
▁소통	-3233
▁좋은	-3234
aged	-3235
▁die	-3236
idence	-3237
▁colle	-3238
▁short	-3239
▁spread	-3240
매매	-3241
▁불가	-3242
▁집행	-3243
▁해소	-3244
▁기회가	-3245
▁인건비	-3246
▁strong	-3247
▁playing	-3248
도의	-3249
▁가구	-3250
▁non	-3251
▁균형을	-3252
▁보육교사	-3253
▁choices	-3254
▁perform	-3255
▁diseases	-3256
▁security	-3257
▁,	-3258
▁좀	-3259
▁전통	-3260
rite	-3261
▁생각이	-3262
▁huge	-3263
▁mind	-3264
받는	-3265
휴일	-3266
▁일괄	-3267
▁rid	-3268
verse	-3269
▁cour	-3270
▁obesity	-3271
▁efficient	-3272
▁감사	-3273
▁불편	-3274
atic	-3275
eric	-3276
▁mov	-3277
▁것으로	-3278
▁늘어나	-3279
▁무서운	-3280
▁존경하는	-3281
받을	-3282
전한	-3283
지가	-3284
pes	-3285
▁대상	-3286
▁수용	-3287
▁적응할	-3288
▁poll	-3289
▁serve	-3290
▁요청합니다	-3291
▁emotional	-3292
문화	-3293
▁못한	-3294
▁사라	-3295
▁인지	-3296
셧다운	-3297
하면서	-3298
▁못하고	-3299
▁무분별	-3300
▁처벌은	-3301
▁피해자는	-3302
▁assist	-3303
▁콘	-3304
양광	-3305
ged	-3306
▁정시	-3307
▁지키	-3308
▁최저	-3309
▁pat	-3310
▁last	-3311
▁race	-3312
▁Input	-3313
드는	-3314
사는	-3315
안이	-3316
해도	-3317
휴직	-3318
▁공간	-3319
무도한	-3320
▁eng	-3321
▁pen	-3322
▁끔찍한	-3323
▁셧다운	-3324
▁hand	-3325
▁청소년은	-3326
▁couples	-3327
▁justice	-3328
▁employees	-3329
▁terrorists	-3330
법을	-3331
▁가진	-3332
▁구성	-3333
▁보험	-3334
▁산업	-3335
▁예산	-3336
▁재발	-3337
▁che	-3338
▁태양광	-3339
▁학부모	-3340
▁쉽	-3341
텐츠	-3342
▁개발	-3343
▁인공	-3344
▁크게	-3345
▁할당	-3346
▁lif	-3347
▁고려할	-3348
▁효과가	-3349
▁보호하고	-3350
▁situation	-3351
up	-3352
▁탄	-3353
것도	-3354
수가	-3355
▁An	-3356
▁er	-3357
▁간곡	-3358
▁높여	-3359
로그램	-3360
oses	-3361
▁어려워	-3362
▁있어야	-3363
▁육아휴직	-3364
▁creating	-3365
이기	-3366
joy	-3367
▁극악	-3368
▁이중	-3369
▁저작	-3370
▁사회를	-3371
▁콘텐츠	-3372
osing	-3373
▁illness	-3374
환경	-3375
ech	-3376
▁If	-3377
▁유도	-3378
릅니다	-3379
▁est	-3380
▁다시는	-3381
▁That	-3382
▁lack	-3383
▁국회의원	-3384
ilities	-3385
임금	-3386
ash	-3387
▁극단	-3388
▁난임	-3389
▁당연	-3390
▁비만	-3391
▁억울	-3392
▁공공의	-3393
▁appe	-3394
▁가해자를	-3395
▁아이들의	-3396
▁homes	-3397
▁trying	-3398
▁부산여중생폭행사건	-3399
co	-3400
가족	-3401
들에	-3402
학년	-3403
▁개별	-3404
▁기관	-3405
▁사드	-3406
ines	-3407
▁그렇게	-3408
▁주장은	-3409
iting	-3410
▁corre	-3411
▁청소년들은	-3412
▁conflic	-3413
▁enforce	-3414
▁example	-3415
인이	-3416
조차	-3417
진다	-3418
▁가짜	-3419
▁연예	-3420
▁의사	-3421
where	-3422
▁negative	-3423
▁protection	-3424
▁쉬	-3425
▁AI	-3426
▁논의	-3427
▁사업	-3428
▁점은	-3429
때문에	-3430
에서도	-3431
자들이	-3432
▁우선시	-3433
aging	-3434
▁class	-3435
▁profession	-3436
▁communities	-3437
동안	-3438
지지	-3439
bal	-3440
▁대표	-3441
▁동성	-3442
▁되었	-3443
▁불법	-3444
▁시험	-3445
▁어떤	-3446
십시요	-3447
▁정의를	-3448
▁중대한	-3449
▁폐지해	-3450
▁left	-3451
▁read	-3452
▁기본적인	-3453
▁보장하기	-3454
▁judges	-3455
▁everything	-3456
▁겪	-3457
일을	-3458
지능	-3459
ake	-3460
▁도덕	-3461
▁상처	-3462
▁인력	-3463
▁처리	-3464
▁bir	-3465
rence	-3466
▁tell	-3467
▁소년법이	-3468
▁until	-3469
▁익	-3470
단체	-3471
자치	-3472
ock	-3473
▁St	-3474
▁고민	-3475
▁또는	-3476
고있는	-3477
해지고	-3478
ling	-3479
▁buy	-3480
▁부동산	-3481
▁pass	-3482
▁watch	-3483
▁접근입니다	-3484
▁청소년이라	-3485
▁concept	-3486
▁traffic	-3487
cc	-3488
딩크	-3489
ric	-3490
▁권리	-3491
▁기대	-3492
▁목소	-3493
▁서울	-3494
셨으면	-3495
▁법으로	-3496
▁year	-3497
▁반성하고	-3498
▁시민들의	-3499
cience	-3500
▁younger	-3501
▁히	-3502
기업	-3503
우는	-3504
함을	-3505
▁특히	-3506
유치원	-3507
ring	-3508
▁civ	-3509
▁간곡히	-3510
ained	-3511
▁vict	-3512
▁프로그램	-3513
▁risks	-3514
▁college	-3515
▁meaning	-3516
▁committing	-3517
▁experience	-3518
▁institution	-3519
▁missionaries	-3520
아서	-3521
출산	-3522
▁공개	-3523
▁대북	-3524
▁되고	-3525
▁따른	-3526
▁한번	-3527
▁rich	-3528
▁word	-3529
▁어려움을	-3530
▁제도이며	-3531
enders	-3532
▁ident	-3533
▁leave	-3534
▁skills	-3535
▁리	-3536
▁국내	-3537
▁보여	-3538
▁신고	-3539
▁정년	-3540
▁도움이	-3541
▁목표로	-3542
▁발생할	-3543
▁자사고	-3544
▁가해자의	-3545
aining	-3546
▁enjoy	-3547
▁maint	-3548
▁extrem	-3549
sw	-3550
국적	-3551
점을	-3552
차별	-3553
▁노력	-3554
▁면제	-3555
▁무료	-3556
▁부디	-3557
▁비율	-3558
▁얼굴	-3559
▁이건	-3560
▁저런	-3561
▁지급	-3562
▁차이	-3563
▁정부의	-3564
▁책임과	-3565
▁carry	-3566
▁promotes	-3567
▁에	-3568
로써	-3569
irc	-3570
▁시행	-3571
▁코딩	-3572
ular	-3573
▁Yes	-3574
▁그들이	-3575
▁인공지능	-3576
▁저지르고	-3577
▁전용도로	-3578
▁shown	-3579
▁capable	-3580
▁standard	-3581
▁충격	-3582
▁학원	-3583
ency	-3584
▁ref	-3585
▁wel	-3586
▁외국인	-3587
▁ones	-3588
▁true	-3589
mental	-3590
▁unable	-3591
▁positive	-3592
▁encourages	-3593
▁격	-3594
▁먼	-3595
▁벗	-3596
놓고	-3597
디어	-3598
▁병행	-3599
▁제안	-3600
just	-3601
▁인간의	-3602
▁처벌과	-3603
▁현재의	-3604
▁wear	-3605
▁civil	-3606
▁killed	-3607
▁service	-3608
▁systems	-3609
▁particip	-3610
▁응	-3611
fic	-3612
▁자연	-3613
▁국방의	-3614
▁시민의	-3615
▁일자리	-3616
▁있는데	-3617
ounds	-3618
▁circ	-3619
▁shows	-3620
▁driving	-3621
▁governments	-3622
▁기업	-3623
▁대학	-3624
▁ach	-3625
▁fit	-3626
▁mom	-3627
▁유전자	-3628
▁value	-3629
▁School	-3630
▁direct	-3631
▁순	-3632
부는	-3633
아요	-3634
ana	-3635
▁간과	-3636
▁부활	-3637
▁해당	-3638
▁호주	-3639
하거나	-3640
ange	-3641
▁자신의	-3642
어린이집	-3643
▁영업시간	-3644
▁지방자치	-3645
▁extra	-3646
▁forces	-3647
▁correct	-3648
▁subject	-3649
NS	-3650
gth	-3651
▁gl	-3652
▁미국	-3653
▁배제	-3654
▁복무	-3655
▁직선	-3656
▁집중	-3657
▁하면	-3658
▁해결할	-3659
▁해결책입니다	-3660
▁relationships	-3661
과의	-3662
기로	-3663
부분	-3664
생각	-3665
줘야	-3666
▁편집	-3667
fort	-3668
▁노동법	-3669
▁히딩크	-3670
▁cent	-3671
▁사람들이	-3672
▁keeping	-3673
▁behavior	-3674
▁묻	-3675
▁미칠	-3676
▁영주	-3677
▁저도	-3678
▁she	-3679
ients	-3680
▁동물실험	-3681
▁이중국적	-3682
▁house	-3683
▁nation	-3684
▁states	-3685
▁victim	-3686
▁purpose	-3687
▁손	-3688
긍정	-3689
▁내용	-3690
▁말도	-3691
▁전면	-3692
▁처우	-3693
fare	-3694
▁div	-3695
▁강화가	-3696
▁능력이	-3697
▁안타깝	-3698
verty	-3699
▁가능하게	-3700
▁spent	-3701
stances	-3702
▁poverty	-3703
▁question	-3704
PT	-3705
▁둔	-3706
시길	-3707
어요	-3708
중절	-3709
▁긍정	-3710
▁명확	-3711
▁익명	-3712
▁줄일	-3713
▁무서워	-3714
▁운동선	-3715
▁제도적	-3716
▁나라에서	-3717
▁임신중절	-3718
▁accur	-3719
▁achie	-3720
▁birth	-3721
▁democracy	-3722
▁developing	-3723
▁곳	-3724
▁끝	-3725
부를	-3726
부탁	-3727
위를	-3728
▁과연	-3729
▁물론	-3730
▁인터	-3731
리적인	-3732
▁안되는	-3733
▁move	-3734
▁현실적인	-3735
▁효과적일	-3736
▁청소년이란	-3737
▁effects	-3738
▁helpful	-3739
▁science	-3740
▁찾	-3741
기세	-3742
만원	-3743
스러	-3744
자력	-3745
emp	-3746
ird	-3747
ked	-3748
▁중인	-3749
▁occ	-3750
▁그래서	-3751
▁기간제	-3752
▁되어야	-3753
▁저출산	-3754
▁체계를	-3755
▁행동에	-3756
▁장기매매	-3757
▁majority	-3758
▁entertainment	-3759
기의	-3760
▁불구	-3761
▁올바	-3762
▁있었	-3763
▁확산	-3764
▁폭행을	-3765
같습니다	-3766
대통령님	-3767
▁아이들은	-3768
▁thought	-3769
▁regulated	-3770
가고	-3771
▁사립	-3772
▁연장	-3773
겠지만	-3774
▁bur	-3775
▁건강과	-3776
▁노동자	-3777
▁부정적	-3778
▁엄정한	-3779
▁절차를	-3780
▁제도를	-3781
juana	-3782
▁lawy	-3783
▁mill	-3784
▁stat	-3785
▁regular	-3786
▁bullying	-3787
erc	-3788
ian	-3789
▁Le	-3790
▁방법	-3791
▁식용	-3792
▁오늘	-3793
▁져야	-3794
등학교	-3795
▁SNS	-3796
▁보호할	-3797
▁oper	-3798
▁vital	-3799
▁미성년자의	-3800
▁multip	-3801
▁prisoners	-3802
▁압	-3803
보고	-3804
스럽	-3805
▁보내	-3806
▁부분	-3807
▁양육	-3808
▁meth	-3809
▁과도하게	-3810
▁There	-3811
▁worth	-3812
▁scient	-3813
▁including	-3814
lt	-3815
국민	-3816
다가	-3817
주행	-3818
▁쉽게	-3819
▁질이	-3820
▁채용	-3821
기세포	-3822
▁eth	-3823
▁나라가	-3824
▁past	-3825
▁views	-3826
▁modern	-3827
▁sexual	-3828
▁speech	-3829
▁reasons	-3830
▁towards	-3831
▁complete	-3832
구요	-3833
▁조금	-3834
sequ	-3835
▁못하는	-3836
▁이유는	-3837
▁인터넷	-3838
▁해결을	-3839
▁qual	-3840
▁성평등을	-3841
▁줄기세포	-3842
▁hands	-3843
▁worse	-3844
▁charities	-3845
▁providing	-3846
어도	-3847
어서	-3848
▁어디	-3849
▁없애	-3850
▁이게	-3851
▁친구	-3852
arri	-3853
▁art	-3854
▁hun	-3855
▁법인세	-3856
▁정보를	-3857
▁줄이고	-3858
▁제한하면	-3859
▁earth	-3860
▁heard	-3861
▁point	-3862
▁attack	-3863
▁훈	-3864
ont	-3865
▁ele	-3866
▁우려는	-3867
▁주민들의	-3868
▁폐지해주	-3869
▁catch	-3870
▁destroy	-3871
▁growing	-3872
li	-3873
▁J	-3874
▁삼	-3875
르고	-3876
▁et	-3877
집니다	-3878
▁필요가	-3879
▁vari	-3880
▁극단적인	-3881
▁comput	-3882
▁usually	-3883
▁violent	-3884
ov	-3885
▁은	-3886
도는	-3887
라스	-3888
장이	-3889
▁먼저	-3890
▁선거	-3891
▁시절	-3892
▁외교	-3893
lebr	-3894
ured	-3895
▁미디어	-3896
▁hist	-3897
▁surv	-3898
▁among	-3899
▁decre	-3900
▁causing	-3901
급이	-3902
받고	-3903
nat	-3904
▁다니	-3905
▁자동	-3906
▁자립	-3907
ever	-3908
▁만드는	-3909
▁answ	-3910
▁청소년이라고	-3911
▁sentence	-3912
▁pollution	-3913
▁physically	-3914
▁빈	-3915
▁왔	-3916
정책	-3917
▁떨어	-3918
▁생기	-3919
▁여자	-3920
▁원격	-3921
aced	-3922
hood	-3923
▁dev	-3924
▁구조적	-3925
▁충분한	-3926
으로서의	-3927
asing	-3928
▁가짜뉴스	-3929
▁면죄부가	-3930
▁의료보험	-3931
▁차원에서	-3932
▁형사처벌	-3933
▁celebr	-3934
▁account	-3935
▁consequ	-3936
▁ensures	-3937
▁prohibited	-3938
▁습	-3939
되었	-3940
시다	-3941
영상	-3942
인을	-3943
제한	-3944
▁느끼	-3945
라스틱	-3946
▁fav	-3947
▁재범을	-3948
▁강화하면	-3949
▁플라스틱	-3950
▁cheap	-3951
▁rules	-3952
▁consider	-3953
리에	-3954
많은	-3955
을때	-3956
eem	-3957
▁백신	-3958
▁점에	-3959
▁최소	-3960
▁투자	-3961
주행차	-3962
▁유치원	-3963
▁싶습니다	-3964
▁초등학생	-3965
▁separ	-3966
▁이유만으로	-3967
▁자율주행차	-3968
▁acting	-3969
▁method	-3970
▁eliminate	-3971
기관	-3972
수를	-3973
▁여론	-3974
▁보호가	-3975
▁원자력	-3976
▁정책의	-3977
▁meas	-3978
▁심각하게	-3979
▁faith	-3980
▁offer	-3981
▁third	-3982
▁determ	-3983
▁defense	-3984
▁Donation	-3985
▁Donations	-3986
▁잃	-3987
▁챗	-3988
▁측	-3989
GPT	-3990
yle	-3991
▁ru	-3992
▁거주	-3993
▁육식	-3994
▁화가	-3995
된다는	-3996
▁etc	-3997
▁ins	-3998
▁sal	-3999
▁강화는	-4000
▁건전한	-4001
▁나라를	-4002
▁필수적	-4003
▁conv	-4004
▁fore	-4005
▁puts	-4006
▁weak	-4007
▁circum	-4008
▁general	-4009
▁leading	-4010
▁species	-4011
▁cultures	-4012
▁갱	-4013
문제	-4014
▁이로	-4015
적이고	-4016
ides	-4017
▁똑같이	-4018
▁정부가	-4019
▁cand	-4020
▁합법화는	-4021
▁share	-4022
ological	-4023
사와	-4024
ify	-4025
▁돌아	-4026
▁진짜	-4027
범죄를	-4028
▁stri	-4029
ruction	-4030
▁appear	-4031
▁extreme	-4032
▁options	-4033
생님	-4034
식이	-4035
▁가슴	-4036
▁다름	-4037
▁미혼	-4038
▁언어	-4039
▁증진	-4040
▁헌법	-4041
▁않으면	-4042
▁온라인	-4043
▁이익을	-4044
기보다는	-4045
oming	-4046
▁area	-4047
▁chec	-4048
▁guns	-4049
▁webs	-4050
▁일입니다	-4051
▁polic	-4052
▁damage	-4053
▁disease	-4054
▁include	-4055
▁welfare	-4056
ix	-4057
▁몰	-4058
▁착	-4059
▁매우	-4060
▁일회	-4061
▁전기	-4062
▁힘들	-4063
lish	-4064
▁abs	-4065
▁방향이	-4066
▁있으나	-4067
▁장기적	-4068
▁저작권	-4069
▁저질러	-4070
▁mari	-4071
▁moral	-4072
▁stren	-4073
▁easily	-4074
▁priest	-4075
▁suffer	-4076
▁treated	-4077
▁marijuana	-4078
▁빨	-4079
▁징	-4080
너지	-4081
▁권한	-4082
▁독립	-4083
▁무엇	-4084
▁언론	-4085
nect	-4086
▁mor	-4087
▁성인이	-4088
▁적절한	-4089
▁sing	-4090
▁안전하게	-4091
▁운전자의	-4092
▁raise	-4093
▁candid	-4094
▁entire	-4095
hol	-4096
▁계약	-4097
▁난민	-4098
▁신속	-4099
▁용서	-4100
▁의존	-4101
▁성장할	-4102
▁This	-4103
▁불구하고	-4104
해야합니다	-4105
▁break	-4106
▁compet	-4107
▁strength	-4108
▁representation	-4109
gn	-4110
결혼	-4111
bit	-4112
▁같이	-4113
▁알려	-4114
▁재개	-4115
부동산	-4116
을까요	-4117
▁bal	-4118
▁단계를	-4119
▁북한의	-4120
▁새로운	-4121
▁doll	-4122
▁fully	-4123
▁consum	-4124
▁outside	-4125
▁respect	-4126
▁willing	-4127
▁뒤	-4128
까운	-4129
▁무슨	-4130
▁배우	-4131
▁비용	-4132
▁접종	-4133
▁형성	-4134
▁den	-4135
▁원하는	-4136
▁line	-4137
▁clear	-4138
▁penal	-4139
versity	-4140
▁expression	-4141
▁폐	-4142
면허	-4143
▁wa	-4144
▁낮추	-4145
▁보상	-4146
▁제재	-4147
▁직장	-4148
▁처음	-4149
소년법	-4150
▁동영상	-4151
▁일회용	-4152
▁name	-4153
▁brain	-4154
▁uneth	-4155
부탁드립니다	-4156
▁remove	-4157
▁바람직합니다	-4158
▁promote	-4159
▁잠	-4160
고죄	-4161
마다	-4162
▁남녀	-4163
로부터	-4164
이라면	-4165
▁ine	-4166
▁사회가	-4167
▁pred	-4168
▁build	-4169
▁addict	-4170
▁report	-4171
▁exploit	-4172
▁special	-4173
▁enforcement	-4174
▁않게	-4175
▁준비	-4176
▁핵심	-4177
▁hor	-4178
▁구성원	-4179
▁보장할	-4180
▁역할을	-4181
▁회복의	-4182
▁case	-4183
▁가해자는	-4184
▁Legal	-4185
▁activ	-4186
▁innov	-4187
▁처벌만으로는	-4188
▁stopped	-4189
▁울	-4190
기간	-4191
스로	-4192
이란	-4193
▁도심	-4194
▁법률	-4195
▁부작	-4196
▁비롯	-4197
▁아래	-4198
▁추진	-4199
▁학대	-4200
▁희망	-4201
▁cal	-4202
으로부터	-4203
▁심각성을	-4204
▁엄벌만이	-4205
▁무섭습니다	-4206
▁imposs	-4207
▁culture	-4208
▁opinions	-4209
▁젊	-4210
력과	-4211
세먼	-4212
포츠	-4213
ery	-4214
▁갱신	-4215
▁낳을	-4216
▁설치	-4217
▁어느	-4218
▁존엄	-4219
▁현장	-4220
▁exc	-4221
▁대부분	-4222
▁현실을	-4223
▁hous	-4224
▁보장하는	-4225
▁안정성을	-4226
▁최저임금	-4227
▁thous	-4228
▁planet	-4229
▁perfect	-4230
▁Charitable	-4231
술인	-4232
으나	-4233
으니	-4234
정도	-4235
uly	-4236
▁검토	-4237
ging	-4238
▁국가의	-4239
▁폭력을	-4240
▁하더라도	-4241
▁comes	-4242
▁funding	-4243
▁products	-4244
▁treatment	-4245
▁impossible	-4246
▁납	-4247
▁먹	-4248
중에	-4249
학적	-4250
▁막는	-4251
수있는	-4252
▁lea	-4253
▁here	-4254
▁심화시킬	-4255
▁const	-4256
▁trust	-4257
▁works	-4258
▁increases	-4259
▁unethical	-4260
▁circumstances	-4261
관을	-4262
만을	-4263
▁Su	-4264
▁aw	-4265
▁수면	-4266
▁이에	-4267
▁젊은	-4268
▁휴식	-4269
해서는	-4270
▁yet	-4271
▁다문화	-4272
▁대기업	-4273
▁부모님	-4274
▁효과를	-4275
gress	-4276
▁face	-4277
▁청소년들	-4278
▁이해합니다	-4279
▁종합부동산	-4280
▁minority	-4281
▁offenders	-4282
▁consequences	-4283
▁숨	-4284
개월	-4285
아니	-4286
▁악마	-4287
▁일관	-4288
▁평화	-4289
▁하게	-4290
▁하기	-4291
▁해외	-4292
▁사형제	-4293
▁일시적	-4294
▁살인사건	-4295
▁funds	-4296
▁least	-4297
▁해야합니다	-4298
▁online	-4299
▁=	-4300
복지	-4301
차를	-4302
프라	-4303
▁왜곡	-4304
▁통한	-4305
alse	-4306
oles	-4307
▁미세먼	-4308
▁정책을	-4309
▁지원은	-4310
cohol	-4311
ither	-4312
▁fear	-4313
▁next	-4314
▁seem	-4315
▁동성결혼	-4316
▁명예훼손	-4317
▁미혼부모	-4318
▁했습니다	-4319
▁false	-4320
▁legit	-4321
▁poore	-4322
▁truly	-4323
▁alcohol	-4324
▁becoming	-4325
되며	-4326
주고	-4327
트레	-4328
▁강한	-4329
▁답답	-4330
▁많아	-4331
▁소득	-4332
▁전쟁	-4333
▁강력히	-4334
▁기준을	-4335
▁면제는	-4336
▁문화적	-4337
▁제도의	-4338
▁효율성을	-4339
▁basic	-4340
▁mother	-4341
▁connect	-4342
▁opinion	-4343
▁particular	-4344
려고	-4345
ank	-4346
▁경각	-4347
▁살고	-4348
▁갈수록	-4349
▁스트레	-4350
▁안전과	-4351
▁hope	-4352
▁meat	-4353
▁무분별한	-4354
▁보호해야	-4355
▁효율성이	-4356
idered	-4357
▁drive	-4358
▁가해자들은	-4359
▁엄마입니다	-4360
▁지방자치단체	-4361
▁actions	-4362
▁폐지해야합니다	-4363
▁educational	-4364
**	-4365
▁흉	-4366
ush	-4367
▁특수	-4368
ians	-4369
ship	-4370
▁신뢰를	-4371
▁아이가	-4372
▁하지말	-4373
▁feed	-4374
▁rely	-4375
▁black	-4376
▁대통령님께	-4377
▁때문입니다	-4378
▁common	-4379
▁potentially	-4380
가야	-4381
계가	-4382
이유	-4383
▁지난	-4384
▁rac	-4385
▁개정이	-4386
▁어렵게	-4387
▁엄중히	-4388
▁인프라	-4389
▁있다면	-4390
▁청원을	-4391
▁친고죄	-4392
▁didn	-4393
▁gets	-4394
▁role	-4395
▁elect	-4396
▁happy	-4397
▁strug	-4398
▁americ	-4399
▁persons	-4400
▁thousands	-4401
▁workforce	-4402
▁Legalizing	-4403
▁considered	-4404
pet	-4405
▁없고	-4406
▁직원	-4407
▁강화해	-4408
▁동물의	-4409
▁전체를	-4410
ropri	-4411
▁main	-4412
▁outc	-4413
▁강력하게	-4414
▁types	-4415
▁청소년이라도	-4416
▁consent	-4417
▁payment	-4418
▁function	-4419
lu	-4420
▁옳	-4421
비를	-4422
▁ve	-4423
▁개정을	-4424
▁심리적	-4425
▁전기차	-4426
▁조기에	-4427
olute	-4428
ories	-4429
▁mist	-4430
▁step	-4431
▁대해서는	-4432
▁cloth	-4433
▁defin	-4434
▁unnat	-4435
▁바람직하지	-4436
▁필요하다고	-4437
▁abused	-4438
▁burden	-4439
▁lifest	-4440
▁strugg	-4441
▁surrog	-4442
▁millions	-4443
▁specific	-4444
▁charitable	-4445
▁K	-4446
가를	-4447
▁갈등	-4448
▁모습	-4449
시키고	-4450
▁uns	-4451
▁누구를	-4452
▁대응에	-4453
▁위험을	-4454
▁치료를	-4455
▁동일하게	-4456
▁드립니다	-4457
▁소년법의	-4458
▁costly	-4459
▁societ	-4460
▁stable	-4461
▁즉	-4462
건을	-4463
업을	-4464
▁유해	-4465
하도록	-4466
▁벗어나	-4467
▁신중한	-4468
▁행위를	-4469
▁방향으로	-4470
▁요구하는	-4471
▁가능합니다	-4472
▁career	-4473
▁looking	-4474
▁message	-4475
▁unnatural	-4476
▁떠	-4477
▁번	-4478
▁윤	-4479
▁첫	-4480
공립	-4481
는지	-4482
살인	-4483
소를	-4484
▁결국	-4485
▁수요	-4486
▁언제	-4487
▁키울	-4488
▁갈등을	-4489
▁문제로	-4490
▁부족한	-4491
▁없다는	-4492
▁향상에	-4493
▁Task	-4494
▁가능성과	-4495
▁안정성과	-4496
▁해결해야	-4497
▁known	-4498
▁가해자들이	-4499
▁극악무도한	-4500
▁생각됩니다	-4501
▁serves	-4502
▁within	-4503
▁만들어주세요	-4504
▁multiple	-4505
▁programs	-4506
▁properly	-4507
▁혹	-4508
행위	-4509
ret	-4510
▁면세	-4511
▁반응	-4512
▁본인	-4513
▁어떠	-4514
스러운	-4515
▁보조금	-4516
▁clot	-4517
▁fail	-4518
▁학교에서	-4519
ending	-4520
utions	-4521
▁answer	-4522
▁enable	-4523
▁website	-4524
▁궁	-4525
▁귀	-4526
▁농	-4527
개선	-4528
보니	-4529
즈존	-4530
치고	-4531
irl	-4532
lig	-4533
ogn	-4534
▁Ad	-4535
▁나쁜	-4536
▁노키	-4537
▁이행	-4538
▁정확	-4539
▁중임	-4540
▁fem	-4541
▁wee	-4542
▁가족의	-4543
▁상황을	-4544
▁에너지	-4545
▁연예인	-4546
▁제한적	-4547
▁훼손할	-4548
istic	-4549
▁once	-4550
▁노키즈존	-4551
▁스트레스	-4552
▁조기교육	-4553
native	-4554
ortion	-4555
▁medic	-4556
▁reach	-4557
▁behind	-4558
▁proced	-4559
▁values	-4560
▁wouldn	-4561
▁informed	-4562
▁everybody	-4563
과를	-4564
라면	-4565
▁기사	-4566
▁받게	-4567
▁재생	-4568
hold	-4569
▁aid	-4570
▁기능을	-4571
▁성장과	-4572
▁born	-4573
▁장치이며	-4574
verage	-4575
▁couple	-4576
▁desper	-4577
▁stress	-4578
▁가정어린이집	-4579
▁numbers	-4580
▁destruction	-4581
▁퇴	-4582
국가	-4583
해져	-4584
sec	-4585
▁vo	-4586
▁않아	-4587
▁않았	-4588
▁예전	-4589
▁lab	-4590
▁범죄는	-4591
▁보장은	-4592
▁사례를	-4593
아이들이	-4594
▁regardless	-4595
▁승	-4596
▁토	-4597
군요	-4598
미수	-4599
위해	-4600
일제	-4601
치게	-4602
▁간절	-4603
▁되면	-4604
▁임원	-4605
▁합의	-4606
▁문화예	-4607
▁사고를	-4608
▁소비를	-4609
▁건강보험	-4610
▁형평성을	-4611
▁desire	-4612
▁advance	-4613
▁clothing	-4614
▁alternative	-4615
▁뭐	-4616
가스	-4617
▁wr	-4618
▁오염	-4619
▁정상	-4620
▁행복	-4621
▁희생	-4622
인가요	-4623
▁사람을	-4624
▁생각을	-4625
▁아무리	-4626
▁폭력의	-4627
ended	-4628
▁lose	-4629
▁unre	-4630
▁trial	-4631
▁조치입니다	-4632
▁deaths	-4633
▁harder	-4634
▁activities	-4635
계를	-4636
대의	-4637
오염	-4638
▁가치	-4639
▁감시	-4640
▁비행	-4641
▁판매	-4642
ones	-4643
▁국공립	-4644
▁일정한	-4645
▁제도는	-4646
▁doct	-4647
▁줄어들어	-4648
▁폐지하고	-4649
▁폐지하여	-4650
▁문제입니다	-4651
▁문화예술인	-4652
▁셧다운제는	-4653
▁select	-4654
▁equality	-4655
▁깊	-4656
이크	-4657
자녀	-4658
▁입학	-4659
▁자식	-4660
▁조성	-4661
▁추구	-4662
▁취지	-4663
하시는	-4664
entr	-4665
▁규제는	-4666
▁스스로	-4667
▁억제할	-4668
▁이번에	-4669
▁처벌받	-4670
▁auth	-4671
▁evil	-4672
▁가정폭력	-4673
▁이런일이	-4674
▁지속적인	-4675
▁levels	-4676
▁achieve	-4677
▁corrupt	-4678
▁appearance	-4679
▁responsible	-4680
▁갑	-4681
▁둘	-4682
▁몸	-4683
권이	-4684
대가	-4685
▁Do	-4686
▁것도	-4687
▁무기	-4688
▁실제	-4689
▁주변	-4690
▁혼란	-4691
▁unc	-4692
▁인상은	-4693
▁하므로	-4694
▁meet	-4695
▁upon	-4696
▁민주주의	-4697
▁어리다고	-4698
▁운동선수	-4699
▁청소년법이	-4700
▁computer	-4701
▁conflict	-4702
▁defender	-4703
▁prevents	-4704
▁:	-4705
료를	-4706
한국	-4707
▁강조	-4708
▁다음	-4709
▁임금	-4710
▁har	-4711
▁vol	-4712
▁근본적	-4713
야합니다	-4714
enses	-4715
rible	-4716
▁경각심을	-4717
▁미세먼지	-4718
▁시스템의	-4719
▁운전면허	-4720
▁처벌만이	-4721
▁포기하는	-4722
inking	-4723
▁restr	-4724
▁폭행사건을	-4725
▁incent	-4726
▁clothes	-4727
▁comfort	-4728
▁지방자치단체장	-4729
▁괴	-4730
▁트	-4731
상을	-4732
정은	-4733
▁tv	-4734
▁공평	-4735
▁보는	-4736
▁유연	-4737
▁정도	-4738
▁치유	-4739
된다면	-4740
ered	-4741
▁규제가	-4742
▁기업의	-4743
▁무시한	-4744
▁재활의	-4745
▁타인의	-4746
▁cred	-4747
▁trou	-4748
inally	-4749
▁court	-4750
izations	-4751
▁adopted	-4752
▁maintain	-4753
▁possibly	-4754
결정	-4755
규모	-4756
수도	-4757
와의	-4758
utr	-4759
▁기초	-4760
▁내려	-4761
▁모색	-4762
▁본질	-4763
▁온실	-4764
▁외부	-4765
▁인사	-4766
▁임용	-4767
▁전혀	-4768
▁환자	-4769
ping	-4770
▁가치를	-4771
▁미성숙	-4772
▁생각해	-4773
▁제도가	-4774
▁온실가스	-4775
▁합리적인	-4776
▁exerc	-4777
▁영업시간을	-4778
▁청소년범죄	-4779
▁합법화하면	-4780
▁genetic	-4781
▁married	-4782
▁international	-4783
▁논란	-4784
▁배치	-4785
▁삶을	-4786
▁조사	-4787
▁줄여	-4788
▁측면	-4789
▁항상	-4790
ably	-4791
▁got	-4792
▁sho	-4793
▁비만세	-4794
▁어떠한	-4795
▁주민의	-4796
▁처벌로	-4797
▁형평성	-4798
극적으로	-4799
바랍니다	-4800
▁fall	-4801
▁isol	-4802
▁동물원은	-4803
▁올립니다	-4804
▁활동지원	-4805
▁funda	-4806
▁기본소득은	-4807
▁장기적으로는	-4808
▁청소년보호법이	-4809
▁following	-4810
▁increased	-4811
▁천	-4812
분을	-4813
심히	-4814
▁일으	-4815
▁잔혹	-4816
▁적폐	-4817
▁듭니다	-4818
▁받을수	-4819
▁선생님	-4820
▁확대가	-4821
ables	-4822
aking	-4823
▁개선하는	-4824
▁국민들이	-4825
▁사형제는	-4826
▁저질렀을	-4827
▁influ	-4828
▁transp	-4829
▁streets	-4830
▁absolute	-4831
▁detection	-4832
oo	-4833
▁덜	-4834
▁밝	-4835
러시	-4836
사업	-4837
▁두려	-4838
▁비정	-4839
▁이슈	-4840
▁확인	-4841
ales	-4842
▁cut	-4843
▁보호에	-4844
▁저소득	-4845
ators	-4846
▁enem	-4847
▁girl	-4848
▁기준으로	-4849
▁사람들을	-4850
▁저질러도	-4851
action	-4852
▁forcing	-4853
▁infring	-4854
▁violates	-4855
▁completely	-4856
aw	-4857
zy	-4858
▁망	-4859
버스	-4860
▁남자	-4861
▁수행	-4862
▁시설	-4863
▁재산	-4864
▁죄의	-4865
▁통제	-4866
▁arm	-4867
▁스포츠	-4868
▁이제는	-4869
아주세요	-4870
epend	-4871
▁kept	-4872
▁pres	-4873
▁대기오염	-4874
▁청소년들을	-4875
▁movies	-4876
▁travel	-4877
--------	-4878
▁yourself	-4879
년이	-4880
법이	-4881
▁Ex	-4882
▁맞게	-4883
▁못할	-4884
▁아닐	-4885
iate	-4886
over	-4887
▁ple	-4888
▁건강을	-4889
▁올바른	-4890
▁위험에	-4891
▁주장에	-4892
▁하는데	-4893
▁reli	-4894
▁seen	-4895
▁국민들의	-4896
▁Write	-4897
▁whale	-4898
▁요구합니다	-4899
▁either	-4900
▁paying	-4901
▁quickly	-4902
▁폐지하기보다는	-4903
▁qualified	-4904
되기	-4905
셔야	-4906
하였	-4907
ape	-4908
▁도모	-4909
▁돌봄	-4910
▁배려	-4911
▁사진	-4912
▁실효	-4913
▁이뤄	-4914
▁임시	-4915
▁자격	-4916
▁평범	-4917
등학생	-4918
▁ant	-4919
▁und	-4920
▁마음을	-4921
▁수많은	-4922
▁특성을	-4923
▁acts	-4924
▁억제하고	-4925
▁일어나지	-4926
▁체계적인	-4927
▁oblig	-4928
▁sever	-4929
▁사립유치원	-4930
▁필요하지만	-4931
▁청소년에게도	-4932
▁concentr	-4933
▁practices	-4934
▁traditional	-4935
▁혐	-4936
▁홈	-4937
하나	-4938
협회	-4939
▁공익	-4940
▁높은	-4941
▁당장	-4942
▁사는	-4943
▁아주	-4944
▁자원	-4945
▁제기	-4946
▁추가	-4947
▁학업	-4948
▁fat	-4949
▁fix	-4950
▁목적이	-4951
▁복지를	-4952
▁아니며	-4953
▁자체가	-4954
▁days	-4955
▁temp	-4956
▁tort	-4957
▁아니라고	-4958
▁일어나고	-4959
▁할당제는	-4960
▁check	-4961
▁later	-4962
▁도와주세요	-4963
▁expect	-4964
▁perpet	-4965
▁priests	-4966
▁currently	-4967
▁lifestyle	-4968
▁supported	-4969
▁abolishing	-4970
▁employment	-4971
▁increasing	-4972
르는	-4973
서도	-4974
▁교화	-4975
▁이야	-4976
▁인격	-4977
ared	-4978
ined	-4979
▁경우가	-4980
▁교정과	-4981
▁문제의	-4982
▁영주권	-4983
ently	-4984
▁가해자들	-4985
▁다릅니다	-4986
▁살인미수	-4987
▁성숙하지	-4988
▁책임감을	-4989
▁아이들에게	-4990
▁incred	-4991
▁selling	-4992
▁accurate	-4993
▁national	-4994
▁interests	-4995
▁difference	-4996
ph	-4997
동물	-4998
▁된다	-4999
▁막을	-5000
▁믿고	-5001
▁사랑	-5002
▁역량	-5003
▁win	-5004
▁부모의	-5005
▁성별에	-5006
주십시오	-5007
▁bond	-5008
▁예방하고	-5009
▁직선제는	-5010
▁향상된다	-5011
▁divor	-5012
▁reward	-5013
▁single	-5014
▁강화만으로는	-5015
▁measure	-5016
▁penalty	-5017
▁punished	-5018
▁required	-5019
",	-5020
sy	-5021
▁만든	-5022
▁반별	-5023
▁기사를	-5024
▁된다고	-5025
▁연령을	-5026
▁정책이	-5027
arant	-5028
▁rate	-5029
▁동등하게	-5030
▁주십시오	-5031
▁emerg	-5032
▁favor	-5033
▁secure	-5034
▁regulations	-5035
나는	-5036
arb	-5037
▁lg	-5038
▁가속	-5039
▁가지	-5040
▁나은	-5041
▁느껴	-5042
▁확실	-5043
▁마음이	-5044
▁모두를	-5045
▁배출이	-5046
▁분명히	-5047
▁비용을	-5048
▁miss	-5049
▁wars	-5050
▁week	-5051
▁국민에게	-5052
▁근로자의	-5053
▁서비스를	-5054
▁시스템을	-5055
시켜주세요	-5056
▁harms	-5057
▁relie	-5058
▁roles	-5059
▁study	-5060
▁loving	-5061
ropriate	-5062
▁abusive	-5063
▁continu	-5064
▁created	-5065
▁progress	-5066
▁터	-5067
세로	-5068
시면	-5069
자체	-5070
한테	-5071
cer	-5072
▁단지	-5073
▁악의	-5074
▁의해	-5075
▁회피	-5076
더군요	-5077
ding	-5078
▁동등한	-5079
▁일들이	-5080
▁행동이	-5081
▁hire	-5082
▁repe	-5083
▁너무나도	-5084
▁늘어나고	-5085
▁해결책은	-5086
▁해결하는	-5087
▁extin	-5088
▁parts	-5089
▁leaders	-5090
▁contribute	-5091
▁scientific	-5092
▁끊	-5093
▁단정	-5094
▁돈을	-5095
▁벌어	-5096
▁회사	-5097
izes	-5098
▁cle	-5099
▁강화를	-5100
▁불평등	-5101
▁시간이	-5102
▁평범한	-5103
▁하지않	-5104
astic	-5105
▁dict	-5106
▁perm	-5107
▁사건들이	-5108
▁악용하여	-5109
▁약화시킬	-5110
▁호주제는	-5111
▁appro	-5112
▁detri	-5113
▁local	-5114
▁이루어져야	-5115
▁caused	-5116
▁helped	-5117
▁feeling	-5118
▁interfe	-5119
▁peoples	-5120
▁putting	-5121
▁victims	-5122
▁directly	-5123
▁evidence	-5124
▁illnesses	-5125
▁surrogate	-5126
원에	-5127
cip	-5128
▁건설	-5129
▁시켜	-5130
십니다	-5131
reen	-5132
▁권력의	-5133
▁높이고	-5134
▁다름이	-5135
▁똑같은	-5136
▁안정을	-5137
▁열심히	-5138
▁재기의	-5139
▁여성가족	-5140
▁Thank	-5141
▁enter	-5142
▁accord	-5143
▁cities	-5144
▁closed	-5145
▁ending	-5146
▁growth	-5147
▁guarant	-5148
▁restrict	-5149
▁곧	-5150
다니	-5151
사일	-5152
형을	-5153
eop	-5154
▁Al	-5155
▁검색	-5156
▁관한	-5157
▁예외	-5158
▁이후	-5159
▁커질	-5160
▁형벌	-5161
하자는	-5162
most	-5163
▁ult	-5164
▁성폭행	-5165
▁event	-5166
▁marry	-5167
▁prior	-5168
ructure	-5169
▁anyway	-5170
▁transpl	-5171
▁independ	-5172
▁determine	-5173
▁trafficking	-5174
▁견	-5175
관련	-5176
아닌	-5177
이터	-5178
정보	-5179
eal	-5180
▁가르	-5181
▁대화	-5182
▁도시	-5183
▁별개	-5184
▁아픔	-5185
▁올라	-5186
▁외면	-5187
▁이끌	-5188
▁장관	-5189
▁중소	-5190
vere	-5191
▁불가능	-5192
▁생각하	-5193
▁안전이	-5194
▁어린이	-5195
itely	-5196
▁sold	-5197
▁못합니다	-5198
▁looks	-5199
▁존재합니다	-5200
▁author	-5201
▁present	-5202
▁position	-5203
▁organizations	-5204
ma	-5205
보면	-5206
혁신	-5207
pay	-5208
▁공적	-5209
▁소방	-5210
▁시장	-5211
▁유포	-5212
▁의문	-5213
▁조정	-5214
시키는	-5215
ergy	-5216
sych	-5217
▁감정적	-5218
▁개선의	-5219
▁논리적	-5220
▁세상이	-5221
▁자유가	-5222
▁city	-5223
▁lgbt	-5224
▁repl	-5225
▁바뀌어야	-5226
▁안된다고	-5227
▁직접적인	-5228
▁early	-5229
▁demand	-5230
▁housing	-5231
▁nations	-5232
▁purposes	-5233
],	-5234
▁긴	-5235
▁깨	-5236
▁로	-5237
▁카	-5238
값을	-5239
경을	-5240
동을	-5241
해가	-5242
xim	-5243
▁ir	-5244
▁막고	-5245
ully	-5246
▁hom	-5247
▁기여를	-5248
▁막대한	-5249
▁사람의	-5250
▁어렵다	-5251
▁없이는	-5252
▁주시기	-5253
▁줄어들	-5254
▁loss	-5255
▁사생활을	-5256
▁지나치게	-5257
▁score	-5258
▁recogn	-5259
▁talent	-5260
▁changes	-5261
▁content	-5262
▁dollars	-5263
▁history	-5264
▁V	-5265
▁딥	-5266
▁흐	-5267
▁Un	-5268
▁군사	-5269
▁기억	-5270
▁누가	-5271
▁딥페	-5272
▁부추	-5273
▁성적	-5274
▁오류	-5275
▁인구	-5276
▁조건	-5277
▁형태	-5278
▁혼잡	-5279
▁훈련	-5280
페이지	-5281
▁equ	-5282
▁glo	-5283
▁도덕적	-5284
▁모두가	-5285
▁성평등	-5286
▁시대에	-5287
▁처벌할	-5288
▁키우고	-5289
▁관계없이	-5290
▁딥페이크	-5291
▁제한하는	-5292
▁terms	-5293
▁강화보다는	-5294
▁시급합니다	-5295
▁balance	-5296
▁trouble	-5297
▁unfairly	-5298
▁머	-5299
급을	-5300
나고	-5301
명을	-5302
이트	-5303
필요	-5304
하겠	-5305
▁가벼	-5306
▁동안	-5307
▁절감	-5308
▁주어	-5309
한다면	-5310
ceed	-5311
gest	-5312
▁우리나	-5313
▁자체를	-5314
▁지금의	-5315
▁처벌법	-5316
없습니다	-5317
▁push	-5318
▁저소득층	-5319
▁minim	-5320
▁대한민국은	-5321
▁반대합니다	-5322
▁animal	-5323
▁청소년들에게	-5324
▁produce	-5325
▁celebrate	-5326
ex	-5327
▁놀	-5328
▁듣	-5329
▁써	-5330
계약	-5331
도와	-5332
por	-5333
▁가볍	-5334
▁건물	-5335
▁건의	-5336
▁기다	-5337
▁수사	-5338
▁유사	-5339
▁조합	-5340
▁흉악	-5341
지않고	-5342
care	-5343
ouch	-5344
▁가속화	-5345
▁고령자	-5346
▁보면서	-5347
▁합당한	-5348
▁혜택을	-5349
▁환경과	-5350
▁jail	-5351
▁moms	-5352
▁nice	-5353
▁노동자는	-5354
▁비정규직	-5355
▁처벌하는	-5356
ission	-5357
▁psych	-5358
▁위해서라도	-5359
▁produc	-5360
▁distract	-5361
▁thinking	-5362
▁terrorist	-5363
▁innovation	-5364
▁legitimate	-5365
▁individuality	-5366
보는	-5367
서적	-5368
임을	-5369
▁꿈을	-5370
▁대비	-5371
▁반려	-5372
▁불공	-5373
▁수가	-5374
▁엄한	-5375
▁이름	-5376
▁일정	-5377
▁짓을	-5378
▁혁신	-5379
▁휴가	-5380
▁힘든	-5381
▁tot	-5382
▁기준이	-5383
▁대응이	-5384
▁민주적	-5385
▁없다고	-5386
▁운영이	-5387
▁위해선	-5388
▁전반의	-5389
▁제한은	-5390
eople	-5391
ustom	-5392
▁held	-5393
▁문재인정	-5394
▁존재하는	-5395
▁heart	-5396
▁People	-5397
▁겁	-5398
교실	-5399
명의	-5400
명이	-5401
수당	-5402
시킨	-5403
인해	-5404
que	-5405
▁..	-5406
▁분양	-5407
▁있음	-5408
하지않	-5409
lder	-5410
ored	-5411
orts	-5412
▁obt	-5413
▁방안을	-5414
▁비판적	-5415
▁사건은	-5416
▁상황에	-5417
▁역차별	-5418
▁자동차	-5419
▁저지를	-5420
▁휴식과	-5421
구합니다	-5422
▁guil	-5423
▁어려워질	-5424
▁형평성에	-5425
▁issue	-5426
▁valid	-5427
▁esteem	-5428
▁racism	-5429
▁severe	-5430
▁보장함으로써	-5431
▁Nuclear	-5432
▁prostit	-5433
▁reduces	-5434
itionally	-5435
▁Mandatory	-5436
▁developed	-5437
▁marriages	-5438
▁generations	-5439
▁constitutional	-5440
부산	-5441
셔서	-5442
아의	-5443
자에	-5444
장치	-5445
ime	-5446
▁늘어	-5447
▁다루	-5448
▁생계	-5449
▁수도	-5450
▁실수	-5451
aren	-5452
▁Add	-5453
▁소규모	-5454
▁책임이	-5455
▁초래해	-5456
▁필요할	-5457
▁lost	-5458
▁sign	-5459
▁고려하지	-5460
ablish	-5461
▁shoot	-5462
~~~~~~~~	-5463
▁candidates	-5464
ah	-5465
of	-5466
▁맡	-5467
대에	-5468
대체	-5469
사자	-5470
시설	-5471
이면	-5472
▁계획	-5473
▁대안	-5474
▁빨리	-5475
▁악화	-5476
▁역시	-5477
▁예술	-5478
▁일상	-5479
▁전국	-5480
▁정착	-5481
▁지지	-5482
▁편의	-5483
▁cat	-5484
▁mus	-5485
▁교화와	-5486
▁미래가	-5487
▁유발할	-5488
▁이용을	-5489
▁창작물	-5490
▁최소한	-5491
▁pick	-5492
▁prin	-5493
▁occur	-5494
▁during	-5495
▁status	-5496
▁unjust	-5497
▁convict	-5498
▁equally	-5499
▁several	-5500
▁damaging	-5501
▁internet	-5502
▁businesses	-5503
▁encouraged	-5504
▁journalists	-5505
▁populations	-5506
gu	-5507
고생	-5508
성도	-5509
위원	-5510
지역	-5511
osp	-5512
▁다르	-5513
▁대출	-5514
▁받은	-5515
▁보니	-5516
▁보유	-5517
▁부터	-5518
▁뿐만	-5519
▁악영	-5520
▁야기	-5521
▁저의	-5522
▁투표	-5523
공휴일	-5524
Save	-5525
soci	-5526
▁dat	-5527
▁간절히	-5528
▁그대로	-5529
▁변화를	-5530
▁약화될	-5531
▁운영의	-5532
▁인하여	-5533
▁자신이	-5534
arily	-5535
▁beau	-5536
▁crit	-5537
▁spir	-5538
▁과정에서	-5539
▁심각성에	-5540
▁일시적인	-5541
▁필수적인	-5542
▁color	-5543
▁ended	-5544
▁smart	-5545
▁worry	-5546
▁lawyer	-5547
▁offers	-5548
▁처벌해주세요	-5549
▁concern	-5550
▁according	-5551
▁emergency	-5552
▁stability	-5553
▁absolutely	-5554
wh	-5555
▁낙	-5556
업체	-5557
▁규정	-5558
▁단위	-5559
▁등의	-5560
▁밖에	-5561
▁보건	-5562
▁분담	-5563
▁신청	-5564
▁싶은	-5565
▁적어	-5566
▁특별	-5567
▁페지	-5568
▁eff	-5569
▁sus	-5570
▁vis	-5571
▁국민을	-5572
▁균형이	-5573
▁기술의	-5574
▁의견을	-5575
▁재발을	-5576
▁접근을	-5577
antly	-5578
aring	-5579
▁sust	-5580
▁uses	-5581
▁인상하면	-5582
하였습니다	-5583
ateway	-5584
▁accom	-5585
▁보호받아야	-5586
▁임신중절을	-5587
▁Subsid	-5588
▁commitment	-5589
드컵	-5590
듯이	-5591
▁공동	-5592
▁민간	-5593
▁바꿔	-5594
▁버스	-5595
▁일본	-5596
▁일환	-5597
▁찾아	-5598
지않는	-5599
ming	-5600
▁Can	-5601
▁것이지	-5602
▁공교육	-5603
▁교사의	-5604
▁국가가	-5605
▁대하여	-5606
▁마음은	-5607
▁보호는	-5608
▁시대가	-5609
▁완화에	-5610
▁원칙에	-5611
anted	-5612
enced	-5613
▁성인보다	-5614
▁완화하고	-5615
▁존중하는	-5616
▁처벌보다	-5617
▁movie	-5618
▁overc	-5619
▁solve	-5620
▁프로그램을	-5621
▁attemp	-5622
▁custom	-5623
▁청원드립니다	-5624
▁average	-5625
▁drivers	-5626
▁setting	-5627
▁문재인대통령님	-5628
▁activity	-5629
▁communic	-5630
▁importance	-5631
ps	-5632
▁읽	-5633
▁탈	-5634
▁팀	-5635
머니	-5636
adv	-5637
▁달리	-5638
▁담당	-5639
▁아기	-5640
▁악랄	-5641
▁완벽	-5642
▁할수	-5643
▁현대	-5644
키우는	-5645
ters	-5646
▁yes	-5647
▁명확히	-5648
▁수밖에	-5649
▁없도록	-5650
▁있어서	-5651
▁지키기	-5652
▁purs	-5653
▁대기업의	-5654
▁악영향을	-5655
▁위협하는	-5656
▁장애인의	-5657
▁홈페이지	-5658
▁우리나라의	-5659
▁associ	-5660
▁backgr	-5661
▁politics	-5662
▁generation	-5663
▁participate	-5664
▁늦	-5665
▁풀	-5666
고한	-5667
과는	-5668
정신	-5669
ins	-5670
▁Ra	-5671
▁ok	-5672
▁공부	-5673
▁살기	-5674
▁전력	-5675
▁정작	-5676
▁제품	-5677
ator	-5678
crib	-5679
work	-5680
▁air	-5681
▁mot	-5682
▁건강에	-5683
▁못하게	-5684
▁시장의	-5685
▁이유가	-5686
▁이해가	-5687
▁정부는	-5688
▁피해가	-5689
왔습니다	-5690
▁clos	-5691
▁side	-5692
▁입장에서	-5693
rences	-5694
ressed	-5695
▁maxim	-5696
▁price	-5697
▁taxes	-5698
▁우선시하는	-5699
▁depend	-5700
▁events	-5701
▁placed	-5702
▁studies	-5703
▁adopting	-5704
,,	-5705
pr	-5706
▁*	-5707
▁펼	-5708
량한	-5709
법은	-5710
에만	-5711
장애	-5712
ipp	-5713
▁기를	-5714
▁보복	-5715
▁여기	-5716
▁작은	-5717
▁정수	-5718
해지는	-5719
ipul	-5720
ises	-5721
iven	-5722
▁cod	-5723
▁cop	-5724
▁esc	-5725
▁gay	-5726
▁가볍게	-5727
▁구조를	-5728
▁실제로	-5729
▁실질적	-5730
▁아니고	-5731
▁일어난	-5732
▁평등한	-5733
▁학생이	-5734
▁행정의	-5735
▁hars	-5736
▁male	-5737
▁차단하는	-5738
▁water	-5739
ination	-5740
▁active	-5741
▁biased	-5742
▁weapon	-5743
▁gateway	-5744
▁establish	-5745
▁violation	-5746
▁소년법폐지해주세요	-5747
▁confidence	-5748
▁controlled	-5749
▁fundamental	-5750
▁‘	-5751
리지	-5752
인가	-5753
자로	-5754
▁공사	-5755
▁구체	-5756
▁나와	-5757
▁또다	-5758
▁생태	-5759
▁엄청	-5760
▁역사	-5761
▁용인	-5762
수있게	-5763
점에서	-5764
진다는	-5765
ains	-5766
ream	-5767
▁rev	-5768
▁기본적	-5769
▁뉴스를	-5770
▁당연히	-5771
▁보호해	-5772
▁아직도	-5773
▁없지만	-5774
▁훼손될	-5775
place	-5776
▁dont	-5777
▁skin	-5778
▁공정하게	-5779
▁긍정적인	-5780
▁심각성은	-5781
▁이해하고	-5782
▁존엄성을	-5783
▁super	-5784
▁defect	-5785
▁itself	-5786
▁unique	-5787
▁survive	-5788
▁accident	-5789
▁humanity	-5790
▁standards	-5791
▁separation	-5792
▁메	-5793
▁와	-5794
▁찬	-5795
리며	-5796
무를	-5797
비가	-5798
자와	-5799
점이	-5800
행이	-5801
ots	-5802
▁발표	-5803
▁북핵	-5804
▁시각	-5805
▁일방	-5806
▁ask	-5807
▁ded	-5808
▁nor	-5809
▁도대체	-5810
▁상황이	-5811
▁선택을	-5812
▁안에서	-5813
▁원인인	-5814
▁send	-5815
▁team	-5816
▁강력범죄	-5817
▁반려동물	-5818
것같습니다	-5819
advant	-5820
▁basis	-5821
itional	-5822
▁repeat	-5823
▁taxpay	-5824
▁viable	-5825
▁미성년자라는	-5826
▁compens	-5827
▁leaving	-5828
▁manipul	-5829
▁massive	-5830
▁overall	-5831
▁project	-5832
▁incredibly	-5833
▁financially	-5834
불어	-5835
생을	-5836
서서	-5837
제도	-5838
짓을	-5839
판을	-5840
fer	-5841
lus	-5842
▁거의	-5843
▁관심	-5844
▁방안	-5845
▁봐주	-5846
▁세계	-5847
▁자라	-5848
▁정체	-5849
▁주체	-5850
▁지적	-5851
▁진정	-5852
시하는	-5853
합니까	-5854
▁sac	-5855
▁개혁이	-5856
▁방식을	-5857
▁속에서	-5858
▁시간과	-5859
▁예방이	-5860
▁우리의	-5861
▁차단할	-5862
right	-5863
▁prep	-5864
▁보호법의	-5865
▁서비스의	-5866
▁악의적인	-5867
▁창의성과	-5868
▁month	-5869
▁ready	-5870
▁confus	-5871
▁wanted	-5872
▁제공함으로써	-5873
▁discour	-5874
▁spending	-5875
▁abilities	-5876
▁democratic	-5877
▁successful	-5878
ee	-5879
▁졸	-5880
구역	-5881
리게	-5882
분이	-5883
any	-5884
oph	-5885
▁당시	-5886
▁생리	-5887
▁없을	-5888
▁영향	-5889
▁올해	-5890
사회적	-5891
한국당	-5892
해주는	-5893
했다는	-5894
ners	-5895
▁hon	-5896
▁sch	-5897
▁더불어	-5898
▁사용자	-5899
▁생활을	-5900
▁코딩을	-5901
▁고등학교	-5902
▁조장하기	-5903
▁해결하기	-5904
▁alone	-5905
▁일괄적으로	-5906
▁Racial	-5907
▁belong	-5908
▁corpor	-5909
▁poorer	-5910
▁wealth	-5911
▁disrupt	-5912
▁divorce	-5913
▁enables	-5914
▁knowing	-5915
▁cultural	-5916
▁fighting	-5917
▁desperate	-5918
▁disadvant	-5919
▁creativity	-5920
▁prostitutes	-5921
▁responsibility	-5922
▁놓	-5923
경찰	-5924
산업	-5925
지못	-5926
▁맞지	-5927
▁양성	-5928
▁의원	-5929
▁입주	-5930
▁취업	-5931
▁후보	-5932
건가요	-5933
에게는	-5934
하고자	-5935
onst	-5936
resh	-5937
▁For	-5938
▁격차를	-5939
▁국정원	-5940
▁노력을	-5941
▁불가피	-5942
▁살아갈	-5943
▁저하될	-5944
▁조직의	-5945
수있도록	-5946
▁near	-5947
▁sick	-5948
▁가중시켜	-5949
▁안타까운	-5950
▁cover	-5951
▁immed	-5952
▁maybe	-5953
▁strike	-5954
▁attract	-5955
▁ethical	-5956
▁various	-5957
▁reducing	-5958
강화	-5959
년에	-5960
들만	-5961
움을	-5962
지면	-5963
equ	-5964
▁No	-5965
▁급여	-5966
▁다만	-5967
▁대우	-5968
▁이전	-5969
▁일변	-5970
▁자살	-5971
▁중대	-5972
▁처한	-5973
러시아	-5974
아이의	-5975
▁bit	-5976
▁him	-5977
▁공휴일	-5978
▁모르고	-5979
▁정책은	-5980
▁친환경	-5981
▁평등을	-5982
▁폭력과	-5983
ining	-5984
▁bias	-5985
▁capt	-5986
▁prob	-5987
▁고민해야	-5988
▁보장하여	-5989
▁뿐입니다	-5990
▁어렵다는	-5991
▁write	-5992
▁감사합니다	-5993
▁어긋납니다	-5994
▁saving	-5995
▁decrease	-5996
▁solution	-5997
▁attention	-5998
▁contribut	-5999
▁terrorism	-6000
▁transport	-6001
▁healthcare	-6002
▁inequality	-6003
▁appropriate	-6004
▁emotionally	-6005
▁Additionally	-6006
▁맘	-6007
▁웃	-6008
려면	-6009
하구	-6010
함이	-6011
set	-6012
▁공식	-6013
▁달라	-6014
▁민원	-6015
▁보기	-6016
▁선발	-6017
▁아버	-6018
▁알게	-6019
▁혐오	-6020
사건을	-6021
었으면	-6022
에게도	-6023
이유로	-6024
하기는	-6025
ilar	-6026
like	-6027
▁Cap	-6028
▁결과가	-6029
▁나라의	-6030
▁능력과	-6031
▁대안이	-6032
▁학생의	-6033
▁한계가	-6034
뿐입니다	-6035
iring	-6036
▁inte	-6037
▁orig	-6038
▁tend	-6039
▁강제하면	-6040
▁생각하는	-6041
▁생각하면	-6042
▁실명제가	-6043
▁익명성을	-6044
▁일반도로	-6045
▁지금까지	-6046
▁평등하게	-6047
▁Three	-6048
▁prove	-6049
▁자유한국당	-6050
eration	-6051
▁credit	-6052
▁highly	-6053
▁manner	-6054
▁similar	-6055
▁healthier	-6056
▁definitely	-6057
go	-6058
to	-6059
▁뽑	-6060
려는	-6061
세상	-6062
하신	-6063
iqu	-6064
▁검증	-6065
▁경악	-6066
▁두고	-6067
▁받았	-6068
▁부당	-6069
▁악성	-6070
▁오래	-6071
▁현행	-6072
ided	-6073
iers	-6074
▁deg	-6075
▁금지는	-6076
▁따라서	-6077
▁미래의	-6078
▁성범죄	-6079
▁이들의	-6080
anced	-6081
being	-6082
▁법적으로	-6083
▁사회에서	-6084
▁선택권을	-6085
▁존재하며	-6086
▁중심으로	-6087
▁almost	-6088
▁manage	-6089
▁nobody	-6090
▁second	-6091
▁Capital	-6092
▁종합부동산세는	-6093
▁supposed	-6094
▁contributes	-6095
),	-6096
▁뒷	-6097
▁밀	-6098
▁석	-6099
저히	-6100
정부	-6101
축구	-6102
할때	-6103
효율	-6104
afe	-6105
app	-6106
hic	-6107
▁고속	-6108
▁근절	-6109
▁낳고	-6110
▁단속	-6111
▁사기	-6112
▁어찌	-6113
▁연결	-6114
▁예측	-6115
아이를	-6116
akes	-6117
▁교육은	-6118
▁높이기	-6119
▁받아들	-6120
▁빠르게	-6121
▁엄벌을	-6122
▁의학적	-6123
▁이나라	-6124
▁이런일	-6125
▁장치가	-6126
▁Some	-6127
▁When	-6128
▁Your	-6129
▁disp	-6130
▁fire	-6131
▁hour	-6132
▁init	-6133
▁road	-6134
▁강화하고	-6135
▁발생하는	-6136
▁정당화될	-6137
▁중소기업	-6138
▁imbal	-6139
▁들었습니다	-6140
하고있습니다	-6141
▁though	-6142
▁amounts	-6143
▁finding	-6144
▁autonomy	-6145
▁mentally	-6146
▁provided	-6147
▁positions	-6148
▁affordable	-6149
▁depression	-6150
▁interested	-6151
▁패	-6152
로만	-6153
에선	-6154
cil	-6155
ony	-6156
▁가질	-6157
▁그칠	-6158
▁남용	-6159
▁바라	-6160
▁아빠	-6161
▁안될	-6162
▁혹은	-6163
받아야	-6164
angu	-6165
▁boy	-6166
▁gif	-6167
▁성장의	-6168
▁우리가	-6169
▁이어져	-6170
▁폐지하	-6171
▁합리적	-6172
▁환경이	-6173
▁회복할	-6174
▁marg	-6175
▁said	-6176
▁방지하기	-6177
▁배제하는	-6178
▁보호받을	-6179
▁사교육을	-6180
▁실현하기	-6181
▁측면에서	-6182
▁autom	-6183
▁chose	-6184
▁forms	-6185
▁stock	-6186
▁touch	-6187
▁기여하므로	-6188
▁피해자들이	-6189
▁larger	-6190
▁prices	-6191
▁offense	-6192
▁changing	-6193
▁childhood	-6194
▁subsidies	-6195
▁detrimental	-6196
▁봉	-6197
▁옛	-6198
▁총	-6199
건지	-6200
또한	-6201
산을	-6202
위한	-6203
율이	-6204
ife	-6205
ler	-6206
ork	-6207
▁경력	-6208
▁답변	-6209
▁등을	-6210
▁라는	-6211
▁비극	-6212
▁생길	-6213
▁인하	-6214
▁하였	-6215
more	-6216
▁ens	-6217
▁개선에	-6218
▁공정성	-6219
▁근로자	-6220
▁엄격히	-6221
▁엄마의	-6222
▁월드컵	-6223
▁일반화	-6224
▁있는지	-6225
▁지자체	-6226
▁활동의	-6227
되더라도	-6228
▁goal	-6229
▁grad	-6230
▁meal	-6231
▁pros	-6232
▁room	-6233
▁went	-6234
▁길입니다	-6235
▁높아지고	-6236
▁생각하고	-6237
▁이행해야	-6238
▁활용하면	-6239
해주십시오	-6240
▁artic	-6241
▁users	-6242
▁voice	-6243
▁distra	-6244
▁engage	-6245
▁necess	-6246
▁worked	-6247
▁대한민국에서	-6248
▁학부모입니다	-6249
!!!!!!!!	-6250
▁charact	-6251
▁lawyers	-6252
▁princip	-6253
▁exercise	-6254
▁identify	-6255
▁reliable	-6256
▁influence	-6257
▁sentences	-6258
ns	-6259
나이	-6260
로는	-6261
세를	-6262
전용	-6263
▁ey	-6264
▁각종	-6265
▁깊이	-6266
▁나누	-6267
▁나아	-6268
▁바꾸	-6269
▁비해	-6270
▁습득	-6271
▁신중	-6272
▁이익	-6273
▁전략	-6274
▁취약	-6275
가해자	-6276
픕니다	-6277
aper	-6278
ateg	-6279
leep	-6280
rest	-6281
vest	-6282
▁And	-6283
▁bat	-6284
▁net	-6285
▁경찰의	-6286
▁권리가	-6287
▁넘어가	-6288
▁무고한	-6289
▁문제에	-6290
▁발전을	-6291
▁않으며	-6292
▁외에도	-6293
▁자녀의	-6294
▁장치를	-6295
▁저해될	-6296
ulous	-6297
▁data	-6298
▁다양성과	-6299
▁않는다는	-6300
되었습니다	-6301
▁harsh	-6302
▁hurts	-6303
▁worst	-6304
▁고려되어야	-6305
areness	-6306
▁disast	-6307
▁accompl	-6308
▁plastic	-6309
▁torture	-6310
▁deserves	-6311
▁watching	-6312
▁청소년보호법으로	-6313
▁societies	-6314
▁preventing	-6315
▁productive	-6316
▁Affirmative	-6317
▁discriminatory	-6318
리한	-6319
술을	-6320
장은	-6321
해질	-6322
ffe	-6323
ulf	-6324
▁Am	-6325
▁무너	-6326
▁법에	-6327
▁분배	-6328
▁절실	-6329
▁해체	-6330
기적인	-6331
지않게	-6332
rist	-6333
▁mer	-6334
▁규제를	-6335
▁그들을	-6336
▁단계와	-6337
▁데이터	-6338
▁비효율	-6339
▁아무런	-6340
▁않나요	-6341
▁재활과	-6342
▁중학교	-6343
▁학교는	-6344
▁혼란을	-6345
▁lazy	-6346
▁mach	-6347
▁murd	-6348
▁trau	-6349
▁강력처벌	-6350
▁공정성과	-6351
▁셧다운제	-6352
▁학생들은	-6353
▁error	-6354
▁facts	-6355
청소년보호법	-6356
isation	-6357
ructive	-6358
▁sounds	-6359
▁running	-6360
▁extremely	-6361
▁acceptable	-6362
▁production	-6363
▁supporting	-6364
▁테	-6365
발전	-6366
서를	-6367
제발	-6368
책감	-6369
hab	-6370
isl	-6371
oty	-6372
▁그걸	-6373
▁방치	-6374
▁복잡	-6375
▁수정	-6376
▁올려	-6377
▁일은	-6378
▁증거	-6379
cell	-6380
oint	-6381
▁bud	-6382
▁ten	-6383
▁가슴이	-6384
▁높여야	-6385
▁아이의	-6386
▁악용을	-6387
▁압니다	-6388
▁운영을	-6389
▁의견에	-6390
▁의료비	-6391
▁일하는	-6392
▁저렇게	-6393
▁창의성	-6394
▁초등생	-6395
▁폭력이	-6396
▁하면서	-6397
▁형성에	-6398
원합니다	-6399
acing	-6400
aling	-6401
fully	-6402
▁hate	-6403
▁lets	-6404
▁가중시킬	-6405
▁보입니다	-6406
▁보호받는	-6407
▁잔인하고	-6408
▁전반적인	-6409
▁촉진되어	-6410
herent	-6411
lderly	-6412
▁ought	-6413
▁침해하므로	-6414
▁exists	-6415
▁global	-6416
▁policy	-6417
▁spirit	-6418
▁contact	-6419
▁elderly	-6420
▁prisons	-6421
▁stories	-6422
▁wearing	-6423
▁Cosmetic	-6424
▁elections	-6425
▁shootings	-6426
▁foundation	-6427
▁Subsidizing	-6428
▁comfortable	-6429
▁effectively	-6430
yc	-6431
▁빼	-6432
▁싫	-6433
▁암	-6434
▁잊	-6435
고시	-6436
▁da	-6437
▁날이	-6438
▁다뤄	-6439
▁당한	-6440
▁등등	-6441
▁말고	-6442
▁묻는	-6443
▁본래	-6444
▁사안	-6445
▁지정	-6446
하네요	-6447
ross	-6448
▁fre	-6449
▁unw	-6450
▁감정에	-6451
▁걱정이	-6452
▁것보다	-6453
▁근무를	-6454
▁대기질	-6455
▁마땅히	-6456
▁면제를	-6457
▁무섭고	-6458
▁무시할	-6459
▁사용은	-6460
▁시간을	-6461
▁아니면	-6462
▁외교적	-6463
▁이대로	-6464
▁일어날	-6465
졌습니다	-6466
▁coll	-6467
▁hear	-6468
▁대통령의	-6469
▁위축되어	-6470
▁전문성을	-6471
▁필요성을	-6472
▁opens	-6473
▁purch	-6474
▁words	-6475
▁궁극적으로	-6476
▁받았습니다	-6477
▁friend	-6478
▁foreign	-6479
▁legalization	-6480
ax	-6481
▁z	-6482
▁얘	-6483
▁욕	-6484
자인	-6485
질이	-6486
ury	-6487
▁그럼	-6488
▁기부	-6489
▁방해	-6490
▁빈곤	-6491
▁설립	-6492
▁오랜	-6493
▁유아	-6494
아니라	-6495
cies	-6496
ival	-6497
▁rad	-6498
▁도저히	-6499
▁살아가	-6500
▁상처를	-6501
▁접근은	-6502
▁진입을	-6503
▁할당제	-6504
▁현장의	-6505
▁형량을	-6506
▁fake	-6507
▁fine	-6508
▁vast	-6509
▁방지하고	-6510
▁청소년에	-6511
▁향상시킬	-6512
▁효율성과	-6513
생각합니다	-6514
▁desig	-6515
▁dream	-6516
▁entit	-6517
▁langu	-6518
▁thank	-6519
▁저지르고도	-6520
arriage	-6521
▁legisl	-6522
▁obtain	-6523
▁perman	-6524
▁제한하더라도	-6525
▁complic	-6526
▁subsidy	-6527
▁targets	-6528
▁hardship	-6529
▁shouldnt	-6530
▁incentive	-6531
▁ourselves	-6532
▁exploitation	-6533
mb	-6534
▁디	-6535
▁베	-6536
▁을	-6537
▁풍	-6538
개정	-6539
률이	-6540
횟수	-6541
ray	-6542
▁나온	-6543
▁부패	-6544
▁분야	-6545
▁사유	-6546
▁상관	-6547
▁성과	-6548
▁심리	-6549
▁아는	-6550
▁안고	-6551
▁애들	-6552
▁제외	-6553
▁주차	-6554
▁중단	-6555
▁착취	-6556
▁행사	-6557
아이가	-6558
????	-6559
ried	-6560
▁del	-6561
▁hac	-6562
▁기반을	-6563
▁모르는	-6564
▁목적에	-6565
▁부탁드	-6566
▁사용을	-6567
▁시대는	-6568
▁안정된	-6569
▁여성도	-6570
▁책임감	-6571
▁치료와	-6572
aught	-6573
▁교사들의	-6574
▁부여하면	-6575
▁필요하며	-6576
atform	-6577
atives	-6578
▁saves	-6579
▁across	-6580
▁charge	-6581
▁please	-6582
▁attacks	-6583
▁diverse	-6584
ny	-6585
▁품	-6586
기고	-6587
마트	-6588
업이	-6589
여성	-6590
했고	-6591
회를	-6592
aps	-6593
▁맞추	-6594
▁부과	-6595
▁비교	-6596
▁있기	-6597
해가는	-6598
▁가벼운	-6599
▁광고는	-6600
▁내용을	-6601
▁말씀에	-6602
▁보장을	-6603
▁사례로	-6604
▁성별을	-6605
▁안하는	-6606
▁정도로	-6607
▁제한될	-6608
▁창의적	-6609
▁혜택은	-6610
▁호주제	-6611
ished	-6612
▁door	-6613
▁wait	-6614
▁건강하게	-6615
▁받아들여	-6616
▁피해학생	-6617
▁허용하면	-6618
ereoty	-6619
urally	-6620
▁seems	-6621
▁store	-6622
▁안타깝지만	-6623
▁지속적으로	-6624
▁aspect	-6625
▁energy	-6626
▁permit	-6627
▁morally	-6628
▁neglect	-6629
▁profits	-6630
▁related	-6631
▁smaller	-6632
▁regulate	-6633
▁resource	-6634
▁stereoty	-6635
▁assistance	-6636
▁compensated	-6637
▁싸	-6638
거리	-6639
중인	-6640
하시	-6641
화가	-6642
회가	-6643
▁감형	-6644
▁달성	-6645
▁동반	-6646
▁등록	-6647
▁만약	-6648
▁범위	-6649
▁보도	-6650
▁여부	-6651
▁작성	-6652
▁전가	-6653
▁전에	-6654
▁창출	-6655
▁타당	-6656
▁판결	-6657
시킨다	-6658
장에서	-6659
피해자	-6660
했다고	-6661
cent	-6662
▁국제적	-6663
▁논란이	-6664
▁다루는	-6665
▁러시아	-6666
▁사이트	-6667
▁생태계	-6668
▁위협할	-6669
▁저희는	-6670
▁지금도	-6671
▁집행이	-6672
▁disf	-6673
▁fulf	-6674
▁soon	-6675
▁이동권을	-6676
▁자기결정	-6677
▁자율성과	-6678
▁하지말고	-6679
▁exact	-6680
▁image	-6681
▁병행되어야	-6682
▁우리나라는	-6683
▁relief	-6684
▁chances	-6685
▁consist	-6686
▁soldiers	-6687
▁workplace	-6688
감독	-6689
년간	-6690
마저	-6691
모든	-6692
오는	-6693
지어	-6694
하에	-6695
▁구분	-6696
▁까지	-6697
▁다를	-6698
▁무상	-6699
▁미숙	-6700
▁미흡	-6701
▁상당	-6702
▁서로	-6703
▁좋아	-6704
▁smo	-6705
▁계기로	-6706
▁단계에	-6707
▁보호처	-6708
▁세금을	-6709
▁위하여	-6710
▁의미가	-6711
▁자율적	-6712
▁차이를	-6713
▁활동을	-6714
▁moth	-6715
▁강화하여	-6716
▁범죄자를	-6717
▁아닙니까	-6718
▁예방하는	-6719
▁지원하는	-6720
▁해결하지	-6721
▁habit	-6722
▁light	-6723
▁roads	-6724
▁동물실험은	-6725
▁사람입니다	-6726
▁있었습니다	-6727
▁필수적이다	-6728
▁arrest	-6729
▁babies	-6730
▁budget	-6731
▁guilty	-6732
▁handle	-6733
▁invent	-6734
▁topics	-6735
▁voters	-6736
▁개정해주세요	-6737
▁mothers	-6738
▁killings	-6739
▁patients	-6740
▁regulation	-6741
".	-6742
▁넣	-6743
권과	-6744
라우	-6745
아래	-6746
음을	-6747
증을	-6748
치지	-6749
함에	-6750
ats	-6751
ney	-6752
▁To	-6753
▁계층	-6754
▁공급	-6755
▁괴롭	-6756
▁도를	-6757
▁방송	-6758
▁비난	-6759
▁시기	-6760
▁쓰레	-6761
▁억압	-6762
▁운행	-6763
▁원장	-6764
▁인류	-6765
갑니다	-6766
rive	-6767
▁...	-6768
▁adm	-6769
▁unp	-6770
▁경험과	-6771
▁대책이	-6772
▁부모가	-6773
▁선량한	-6774
▁악용한	-6775
▁우리는	-6776
▁이야기	-6777
▁자녀를	-6778
▁정서적	-6779
▁조치를	-6780
▁처벌만	-6781
ystem	-6782
▁call	-6783
▁nutr	-6784
▁writ	-6785
▁무서워서	-6786
▁억제하기	-6787
▁일괄적인	-6788
▁자사고는	-6789
▁주셨으면	-6790
lement	-6791
▁fresh	-6792
▁front	-6793
▁peers	-6794
▁개선되어야	-6795
▁female	-6796
elligent	-6797
▁strateg	-6798
▁부산여중생폭행	-6799
▁conflicts	-6800
▁괜	-6801
▁봤	-6802
jud	-6803
omm	-6804
▁감싸	-6805
▁고소	-6806
▁당신	-6807
▁맞춰	-6808
▁명목	-6809
▁상상	-6810
▁실정	-6811
▁실패	-6812
▁아프	-6813
▁약한	-6814
▁주고	-6815
▁찬성	-6816
으로는	-6817
omen	-6818
▁beg	-6819
▁inj	-6820
▁mut	-6821
▁wal	-6822
▁강제로	-6823
▁고령화	-6824
▁기회의	-6825
▁마땅한	-6826
▁뿐이며	-6827
▁소비자	-6828
▁애들이	-6829
▁여학생	-6830
▁정보의	-6831
▁주장이	-6832
▁지원과	-6833
▁직선제	-6834
▁회복적	-6835
erson	-6836
▁book	-6837
▁coer	-6838
▁game	-6839
▁item	-6840
▁pret	-6841
▁pure	-6842
▁talk	-6843
▁부모로써	-6844
▁아이들과	-6845
▁있을까요	-6846
▁최소한의	-6847
▁투명성을	-6848
▁accus	-6849
▁conne	-6850
▁haven	-6851
▁topic	-6852
▁상황입니다	-6853
▁임시공휴일	-6854
▁cancer	-6855
▁freely	-6856
▁interv	-6857
▁wonder	-6858
▁모르겠습니다	-6859
▁doctors	-6860
▁legally	-6861
▁sources	-6862
▁threats	-6863
▁entitled	-6864
▁generate	-6865
▁marginal	-6866
▁partners	-6867
▁platform	-6868
▁procedures	-6869
▁represented	-6870
).	-6871
▁?	-6872
▁네	-6873
▁송	-6874
강사	-6875
경우	-6876
근혜	-6877
기물	-6878
시험	-6879
일에	-6880
장에	-6881
하니	-6882
riv	-6883
▁Is	-6884
▁Sp	-6885
▁가는	-6886
▁두렵	-6887
▁마찬	-6888
▁박탈	-6889
▁생겨	-6890
▁아시	-6891
▁앞장	-6892
▁위기	-6893
▁은행	-6894
▁잔디	-6895
▁정밀	-6896
▁포괄	-6897
iled	-6898
vert	-6899
▁boo	-6900
▁met	-6901
▁pie	-6902
▁개선해	-6903
▁개혁은	-6904
▁공익을	-6905
▁관대한	-6906
▁변화가	-6907
▁북한이	-6908
▁분석과	-6909
▁사람은	-6910
▁심화될	-6911
▁약자를	-6912
▁예방에	-6913
▁정신적	-6914
▁제한할	-6915
▁힘들어	-6916
하면서도	-6917
igure	-6918
▁cook	-6919
▁대상으로	-6920
▁안전하고	-6921
▁폐지되면	-6922
▁goals	-6923
▁paper	-6924
▁이어진다는	-6925
▁자연스러운	-6926
ristian	-6927
▁object	-6928
▁united	-6929
▁greatly	-6930
▁diversity	-6931
az	-6932
cu	-6933
▁얻	-6934
권의	-6935
내는	-6936
노동	-6937
에요	-6938
있고	-6939
치병	-6940
칠수	-6941
ove	-6942
uel	-6943
▁En	-6944
▁가입	-6945
▁되기	-6946
▁보존	-6947
▁보행	-6948
▁불러	-6949
▁비인	-6950
▁사리	-6951
▁성격	-6952
▁시점	-6953
▁일단	-6954
▁호소	-6955
라우마	-6956
▁dog	-6957
▁sum	-6958
▁경기도	-6959
▁그동안	-6960
▁낮추면	-6961
▁분노를	-6962
▁세상에	-6963
▁예방을	-6964
▁윤리적	-6965
▁인권과	-6966
▁인재가	-6967
▁정보와	-6968
▁지금은	-6969
▁처벌의	-6970
▁크므로	-6971
▁해결에	-6972
▁현실에	-6973
▁확대를	-6974
▁barb	-6975
▁bill	-6976
▁dead	-6977
▁ecos	-6978
▁mere	-6979
▁okay	-6980
▁slow	-6981
▁soft	-6982
▁국정원은	-6983
▁금지해야	-6984
▁기여하며	-6985
▁대북지원	-6986
▁법입니다	-6987
▁사건으로	-6988
▁시스템이	-6989
▁없어져야	-6990
▁영주권을	-6991
▁익명성에	-6992
▁일어나는	-6993
▁전통적인	-6994
▁직원들의	-6995
▁처벌해야	-6996
▁해주셔야	-6997
athers	-6998
▁attor	-6999
▁facil	-7000
▁hours	-7001
▁overs	-7002
▁races	-7003
▁stops	-7004
▁volun	-7005
▁지켜주세요	-7006
▁actual	-7007
▁prefer	-7008
▁도입되더라도	-7009
▁anymore	-7010
▁inherent	-7011
▁thoughts	-7012
▁ecosystem	-7013
▁elsewhere	-7014
▁schooling	-7015
▁distracted	-7016
▁뜻	-7017
겠죠	-7018
관리	-7019
께서	-7020
들로	-7021
물이	-7022
상태	-7023
속에	-7024
신문	-7025
어주	-7026
좋은	-7027
uck	-7028
▁거래	-7029
▁것과	-7030
▁말을	-7031
▁명분	-7032
▁상대	-7033
▁소속	-7034
▁수를	-7035
▁운용	-7036
▁하에	-7037
정도로	-7038
ches	-7039
▁bot	-7040
▁공급이	-7041
▁기대어	-7042
▁내에서	-7043
▁서민의	-7044
▁않지만	-7045
▁억울한	-7046
▁완화할	-7047
▁인권은	-7048
▁적용이	-7049
▁죄값을	-7050
▁초점을	-7051
▁침해를	-7052
abled	-7053
ening	-7054
ption	-7055
roduc	-7056
▁금지하면	-7057
▁누구보다	-7058
▁목소리가	-7059
▁보조금을	-7060
▁부작용을	-7061
▁트라우마	-7062
▁환경에서	-7063
▁boost	-7064
▁clean	-7065
▁reven	-7066
▁subst	-7067
▁가해자들을	-7068
▁공감합니다	-7069
▁동의합니다	-7070
▁소년법으로	-7071
▁음주운전은	-7072
imately	-7073
▁closer	-7074
▁removes	-7075
▁training	-7076
▁understanding	-7077
ᅲᅲ	-7078
▁퍼	-7079
▁흔	-7080
강력	-7081
뉘우	-7082
단에	-7083
면역	-7084
벌이	-7085
아닙	-7086
없고	-7087
연히	-7088
율을	-7089
이킬	-7090
정의	-7091
해를	-7092
oud	-7093
uth	-7094
▁Ok	-7095
▁구축	-7096
▁국회	-7097
▁그만	-7098
▁막아	-7099
▁맞춤	-7100
▁업체	-7101
▁일과	-7102
▁일삼	-7103
▁중립	-7104
겁니까	-7105
합시다	-7106
▁감독님	-7107
▁강화에	-7108
▁그들은	-7109
▁아픔을	-7110
▁어머니	-7111
▁일관된	-7112
▁중임제	-7113
▁축소로	-7114
erior	-7115
inous	-7116
▁prey	-7117
▁prim	-7118
▁rise	-7119
▁text	-7120
▁util	-7121
▁거주하는	-7122
▁약화되어	-7123
▁주십시요	-7124
▁집단면역	-7125
▁daily	-7126
▁girls	-7127
▁gradu	-7128
▁toler	-7129
▁가속화되어	-7130
▁근본적으로	-7131
▁잔인무도한	-7132
▁청소년들도	-7133
▁촉구합니다	-7134
endment	-7135
ressive	-7136
▁barbar	-7137
▁beings	-7138
▁called	-7139
▁escape	-7140
▁excess	-7141
▁humane	-7142
▁supply	-7143
▁crucial	-7144
▁outcome	-7145
▁popular	-7146
▁raising	-7147
▁expenses	-7148
▁feelings	-7149
▁horrible	-7150
▁infringe	-7151
▁mistakes	-7152
▁overcrow	-7153
▁teachers	-7154
▁addictive	-7155
▁civilians	-7156
▁imbalance	-7157
▁legalising	-7158
▁protecting	-7159
▁intelligent	-7160
▁possibility	-7161
▁슬	-7162
거라	-7163
나무	-7164
대는	-7165
부부	-7166
악한	-7167
연금	-7168
적이	-7169
제가	-7170
ays	-7171
bor	-7172
▁금융	-7173
▁납부	-7174
▁내부	-7175
▁뉘우	-7176
▁두번	-7177
▁변경	-7178
▁수능	-7179
▁습관	-7180
▁실시	-7181
▁심한	-7182
▁약속	-7183
▁옛날	-7184
▁지하	-7185
▁직무	-7186
▁징병	-7187
▁취할	-7188
▁특성	-7189
▁횟수	-7190
하는게	-7191
uted	-7192
▁bro	-7193
▁deb	-7194
▁enh	-7195
▁ver	-7196
▁권리와	-7197
▁기반한	-7198
▁당하고	-7199
▁미사일	-7200
▁바로잡	-7201
▁발전은	-7202
▁분들이	-7203
▁시민이	-7204
▁심지어	-7205
▁예산의	-7206
▁있어요	-7207
▁자원의	-7208
▁죄의식	-7209
▁차별을	-7210
▁참여가	-7211
들입니다	-7212
적입니다	-7213
▁sect	-7214
▁공교육의	-7215
▁데이터를	-7216
▁목소리를	-7217
▁변해가는	-7218
▁안전장치	-7219
▁우리들의	-7220
▁appre	-7221
▁prote	-7222
▁quest	-7223
▁학생들에게	-7224
▁buying	-7225
▁caught	-7226
▁faster	-7227
▁father	-7228
▁explore	-7229
▁however	-7230
▁testing	-7231
▁univers	-7232
▁weather	-7233
abilities	-7234
▁Marriage	-7235
▁language	-7236
▁outcomes	-7237
▁employers	-7238
▁procedure	-7239
▁resulting	-7240
▁corruption	-7241
▁concentrate	-7242
rs	-7243
▁갔	-7244
▁멸	-7245
▁틀	-7246
건강	-7247
난다	-7248
대표	-7249
센터	-7250
스크	-7251
현실	-7252
ark	-7253
▁Aw	-7254
▁간선	-7255
▁그때	-7256
▁방문	-7257
▁법안	-7258
▁본보	-7259
▁악질	-7260
▁않기	-7261
▁탄소	-7262
▁핵무	-7263
대학교	-7264
들보다	-7265
로서의	-7266
스럽게	-7267
자들의	-7268
ived	-7269
raph	-7270
▁dut	-7271
▁관심을	-7272
▁국민은	-7273
▁난치병	-7274
▁말씀드	-7275
▁맞춤형	-7276
▁바라는	-7277
▁보급이	-7278
▁비율을	-7279
▁생산성	-7280
▁소통과	-7281
▁이상의	-7282
▁정책에	-7283
▁체계가	-7284
▁표현을	-7285
려주세요	-7286
ooled	-7287
▁Many	-7288
▁rule	-7289
▁stif	-7290
▁unst	-7291
▁고등학생	-7292
▁만듭니다	-7293
▁보장하고	-7294
▁살아가는	-7295
▁자율성을	-7296
▁제한하며	-7297
▁중임제는	-7298
▁판단력이	-7299
▁확산시킬	-7300
거같습니다	-7301
▁ridic	-7302
▁votes	-7303
▁youth	-7304
▁기여합니다	-7305
▁조기교육을	-7306
▁현실입니다	-7307
▁종합부동산세	-7308
▁하지않을까요	-7309
▁citizen	-7310
▁classes	-7311
▁enemies	-7312
▁heinous	-7313
▁hurting	-7314
▁methods	-7315
▁sustain	-7316
▁barbaric	-7317
▁earnings	-7318
▁existence	-7319
▁exploited	-7320
▁household	-7321
▁naturally	-7322
▁taxpayers	-7323
▁obligation	-7324
▁differences	-7325
가가	-7326
이런	-7327
지에	-7328
치며	-7329
텐데	-7330
ese	-7331
nic	-7332
ses	-7333
tom	-7334
▁고객	-7335
▁괜찮	-7336
▁국적	-7337
▁그로	-7338
▁부합	-7339
▁비리	-7340
▁연속	-7341
▁중앙	-7342
겠다는	-7343
옵니다	-7344
정신적	-7345
▁tur	-7346
▁가격을	-7347
▁기준에	-7348
▁나이를	-7349
▁누구나	-7350
▁다르게	-7351
▁단체에	-7352
▁물어야	-7353
▁사건과	-7354
▁소방관	-7355
▁인력을	-7356
▁인천초	-7357
▁장려금	-7358
▁지나친	-7359
▁진단과	-7360
▁출산을	-7361
▁태아의	-7362
▁핵실험	-7363
▁효율성	-7364
났습니다	-7365
싶습니다	-7366
▁With	-7367
▁crow	-7368
▁desp	-7369
▁host	-7370
▁seek	-7371
▁도입하면	-7372
▁마음으로	-7373
▁마찬가지	-7374
▁모색하는	-7375
▁불가능한	-7376
▁않을까요	-7377
▁연예인도	-7378
▁콘텐츠는	-7379
esteem	-7380
▁motiv	-7381
▁sleep	-7382
▁white	-7383
▁실질적으로	-7384
▁인공지능이	-7385
▁전용도로를	-7386
▁종합적으로	-7387
▁해결입니다	-7388
▁Americ	-7389
▁histor	-7390
▁owners	-7391
▁prosec	-7392
▁street	-7393
▁talking	-7394
▁variety	-7395
▁bringing	-7396
▁disabled	-7397
▁powerful	-7398
▁starting	-7399
▁struggle	-7400
▁questions	-7401
▁associated	-7402
▁struggling	-7403
▁university	-7404
."	-7405
by	-7406
고를	-7407
관계	-7408
구를	-7409
부제	-7410
선을	-7411
요청	-7412
의를	-7413
이용	-7414
이자	-7415
키는	-7416
ran	-7417
rom	-7418
▁IQ	-7419
▁고쳐	-7420
▁노인	-7421
▁돈이	-7422
▁라고	-7423
▁멸종	-7424
▁법도	-7425
▁상승	-7426
▁신분	-7427
▁심신	-7428
▁전달	-7429
▁지도	-7430
▁지킬	-7431
국가가	-7432
부제를	-7433
해진다	-7434
asks	-7435
iced	-7436
ites	-7437
yond	-7438
▁dad	-7439
▁ord	-7440
▁근거가	-7441
▁꿈나무	-7442
▁납니다	-7443
▁대학생	-7444
▁도움을	-7445
▁동물원	-7446
▁부패한	-7447
▁비용이	-7448
▁사이버	-7449
▁수단이	-7450
▁수면을	-7451
▁악행을	-7452
▁진단은	-7453
▁차이가	-7454
▁철저히	-7455
▁평가를	-7456
▁폐지와	-7457
▁확산을	-7458
하기보다	-7459
▁guid	-7460
▁join	-7461
▁rare	-7462
▁rele	-7463
▁바람직한	-7464
▁사람들은	-7465
▁어려움에	-7466
▁위축시켜	-7467
▁조치이다	-7468
▁축구협회	-7469
▁학습에서	-7470
angers	-7471
iously	-7472
▁fewer	-7473
▁mater	-7474
▁model	-7475
▁monit	-7476
▁rehab	-7477
▁tasks	-7478
▁가정폭력은	-7479
▁가짜뉴스는	-7480
▁대한민국이	-7481
▁심각하다는	-7482
▁장기매매를	-7483
▁해주십시오	-7484
ologies	-7485
▁borrow	-7486
▁brainw	-7487
▁detain	-7488
▁limits	-7489
▁merely	-7490
▁poorly	-7491
▁prejud	-7492
▁자율주행차는	-7493
▁carried	-7494
▁fathers	-7495
▁perpetu	-7496
▁statist	-7497
▁worship	-7498
▁폐지해주십시오	-7499
▁celibate	-7500
▁concerns	-7501
▁destroys	-7502
▁intended	-7503
▁requires	-7504
▁stronger	-7505
▁structure	-7506
▁accomplish	-7507
▁eventually	-7508
▁interaction	-7509
▁<	-7510
▁멀	-7511
려야	-7512
받침	-7513
상공	-7514
상황	-7515
스트	-7516
에대	-7517
이버	-7518
했던	-7519
회사	-7520
▁갖고	-7521
▁개편	-7522
▁군인	-7523
▁글로	-7524
▁다스	-7525
▁비슷	-7526
▁사망	-7527
▁수백	-7528
▁압박	-7529
▁제약	-7530
▁질병	-7531
는데도	-7532
됩니까	-7533
했으면	-7534
ancy	-7535
ault	-7536
ired	-7537
rant	-7538
ware	-7539
▁ign	-7540
▁강화할	-7541
▁개선된	-7542
▁겁니다	-7543
▁기준은	-7544
▁노출될	-7545
▁돌이킬	-7546
▁뒷받침	-7547
▁별개의	-7548
▁보험료	-7549
▁사고가	-7550
▁사하구	-7551
▁선택의	-7552
▁수준의	-7553
▁안정과	-7554
▁야기할	-7555
▁역량을	-7556
▁유도할	-7557
▁이슈가	-7558
▁잔혹한	-7559
▁투명한	-7560
▁포함한	-7561
시키므로	-7562
해가는데	-7563
acity	-7564
ature	-7565
cribe	-7566
erous	-7567
iving	-7568
▁fash	-7569
▁path	-7570
▁가능하다	-7571
▁근무하는	-7572
▁받는다는	-7573
▁법인세를	-7574
▁앞장서서	-7575
▁유발하고	-7576
▁이용하는	-7577
▁책임성을	-7578
assion	-7579
levant	-7580
▁apart	-7581
▁aware	-7582
▁labor	-7583
▁loved	-7584
▁oppos	-7585
▁steal	-7586
▁보호법으로	-7587
▁중요하다는	-7588
▁폭행사건이	-7589
angered	-7590
▁integr	-7591
▁interp	-7592
▁pursue	-7593
▁받아야합니다	-7594
▁appreci	-7595
▁reflect	-7596
▁removed	-7597
▁revenue	-7598
▁written	-7599
ification	-7600
▁ensuring	-7601
▁introduc	-7602
▁policies	-7603
▁teaching	-7604
▁terrible	-7605
▁generally	-7606
▁improving	-7607
▁endangered	-7608
▁끼	-7609
▁묵	-7610
▁앖	-7611
▁휘	-7612
각지	-7613
개발	-7614
글을	-7615
름을	-7616
리기	-7617
수준	-7618
엄마	-7619
위가	-7620
을수	-7621
정된	-7622
정말	-7623
환을	-7624
aim	-7625
gan	-7626
let	-7627
ris	-7628
und	-7629
▁Go	-7630
▁My	-7631
▁가져	-7632
▁공백	-7633
▁누군	-7634
▁대처	-7635
▁되며	-7636
▁사태	-7637
▁생존	-7638
▁수익	-7639
▁아픈	-7640
▁유일	-7641
▁적극	-7642
▁투기	-7643
학년을	-7644
ties	-7645
▁Pol	-7646
▁mal	-7647
▁개선될	-7648
▁과거의	-7649
▁구하는	-7650
▁권한을	-7651
▁답답할	-7652
▁만들고	-7653
▁문제임	-7654
▁박근혜	-7655
▁반성의	-7656
▁방대한	-7657
▁별도의	-7658
▁사실을	-7659
▁생활과	-7660
▁성인의	-7661
▁아이는	-7662
▁엄벌이	-7663
▁연구를	-7664
▁위협이	-7665
▁일하고	-7666
▁정년을	-7667
▁정확한	-7668
▁직장인	-7669
▁한다면	-7670
▁활용해	-7671
▁힘들게	-7672
iding	-7673
▁cant	-7674
▁dign	-7675
▁hide	-7676
▁부작용이	-7677
▁아이들도	-7678
▁않습니까	-7679
▁어려움이	-7680
▁연장하면	-7681
▁완화되어	-7682
▁침해하며	-7683
▁해소하는	-7684
▁along	-7685
▁armed	-7686
▁dress	-7687
▁input	-7688
▁overp	-7689
▁voter	-7690
▁노동자에게	-7691
▁대통령님의	-7692
▁해결하려는	-7693
▁현실적으로	-7694
▁beyond	-7695
▁deform	-7696
▁degree	-7697
▁sacred	-7698
▁screen	-7699
▁strain	-7700
▁underm	-7701
▁weaker	-7702
▁운동선수에게	-7703
▁accused	-7704
▁females	-7705
▁suspect	-7706
▁educated	-7707
▁medicine	-7708
▁probably	-7709
▁unstable	-7710
▁unwanted	-7711
▁amendment	-7712
▁candidate	-7713
▁interfere	-7714
▁permanent	-7715
▁rehabilit	-7716
▁extinction	-7717
▁transplant	-7718
▁institutions	-7719
▁psychological	-7720
▁를	-7721
▁짧	-7722
교욱	-7723
기준	-7724
답게	-7725
만한	-7726
보육	-7727
실을	-7728
워야	-7729
하라	-7730
ber	-7731
ene	-7732
ook	-7733
raw	-7734
uct	-7735
uff	-7736
▁He	-7737
▁구매	-7738
▁금연	-7739
▁넘는	-7740
▁단축	-7741
▁보며	-7742
▁아예	-7743
▁이젠	-7744
▁직업	-7745
▁한반	-7746
enty	-7747
▁Col	-7748
▁Des	-7749
▁red	-7750
▁wed	-7751
▁가까운	-7752
▁경험을	-7753
▁단체의	-7754
▁대책을	-7755
▁만들기	-7756
▁말도안	-7757
▁병역의	-7758
▁살아야	-7759
▁이용해	-7760
▁책임의	-7761
▁펼칠수	-7762
▁학교를	-7763
▁한사람	-7764
▁희망을	-7765
▁Have	-7766
▁Make	-7767
▁cash	-7768
▁lear	-7769
▁개인정보	-7770
▁능력보다	-7771
▁역차별을	-7772
▁연령대를	-7773
▁장려금을	-7774
▁학생들을	-7775
▁adequ	-7776
▁farms	-7777
▁speak	-7778
▁꿈나무들이	-7779
▁말아주세요	-7780
▁제한적이며	-7781
▁효과적이다	-7782
▁return	-7783
▁확대만으로는	-7784
▁address	-7785
▁attempt	-7786
▁opposed	-7787
▁capacity	-7788
▁regarding	-7789
▁additional	-7790
▁뿌	-7791
▁쌓	-7792
▁왕	-7793
▁즐	-7794
구가	-7795
라서	-7796
랜드	-7797
력은	-7798
배치	-7799
살아	-7800
지막	-7801
aos	-7802
ᆢ모든	-7803
▁Te	-7804
▁감축	-7805
▁개를	-7806
▁견제	-7807
▁금액	-7808
▁낮은	-7809
▁무관	-7810
▁배아	-7811
▁봉사	-7812
▁사항	-7813
▁설계	-7814
▁안심	-7815
▁월급	-7816
▁위반	-7817
▁진심	-7818
▁확충	-7819
▁활성	-7820
교욱을	-7821
었다고	-7822
지않은	-7823
처벌을	-7824
▁Any	-7825
▁dom	-7826
▁sat	-7827
▁나이에	-7828
▁또다른	-7829
▁목적과	-7830
▁불편을	-7831
▁앖으니	-7832
▁유연한	-7833
▁의무가	-7834
▁잘못에	-7835
▁통합을	-7836
▁평생을	-7837
▁학교에	-7838
▁학생을	-7839
▁현실이	-7840
▁흡연을	-7841
▁Fact	-7842
▁busy	-7843
▁deep	-7844
▁head	-7845
▁site	-7846
▁tact	-7847
▁wide	-7848
▁교육개선	-7849
▁돌봄교실	-7850
▁사교욱을	-7851
▁세금으로	-7852
▁신속하게	-7853
▁아니라는	-7854
▁여성에게	-7855
▁인프라가	-7856
▁하지말라	-7857
▁해결되지	-7858
스럽습니다	-7859
지않습니다	-7860
폐지되어야	-7861
▁chaos	-7862
▁enemy	-7863
▁faire	-7864
▁foods	-7865
▁knows	-7866
▁금지되어야	-7867
▁대중교통이	-7868
▁만들어진다	-7869
▁무분별하게	-7870
▁보았습니다	-7871
▁인공지능은	-7872
▁있다하는데	-7873
▁있어야하지	-7874
▁학생입니다	-7875
▁eating	-7876
▁infert	-7877
▁losing	-7878
▁pretty	-7879
▁마음뿐입니다	-7880
▁변해가는것이	-7881
▁변화해가는데	-7882
▁시민으로서의	-7883
▁학교에서부터	-7884
▁climate	-7885
▁defects	-7886
▁dignity	-7887
▁poorest	-7888
▁privile	-7889
▁regimes	-7890
▁succeed	-7891
▁waiting	-7892
▁choosing	-7893
▁creative	-7894
▁normally	-7895
▁peaceful	-7896
▁signific	-7897
▁있다하는데ᆢ모든	-7898
▁폐지되어야합니다	-7899
▁character	-7900
▁christian	-7901
▁happening	-7902
▁oversight	-7903
▁consenting	-7904
▁ridiculous	-7905
▁independent	-7906
▁professional	-7907
▁transportation	-7908
ds	-7909
▁/	-7910
▁팔	-7911
▁홍	-7912
간의	-7913
률을	-7914
시민	-7915
이스	-7916
조합	-7917
지게	-7918
med	-7919
unk	-7920
▁가로	-7921
▁게시	-7922
▁공포	-7923
▁날로	-7924
▁남북	-7925
▁낮아	-7926
▁미만	-7927
▁반해	-7928
▁세대	-7929
▁수업	-7930
▁어릴	-7931
▁예비	-7932
▁조작	-7933
▁좋겠	-7934
▁해답	-7935
겠지요	-7936
되는데	-7937
안에서	-7938
주의로	-7939
하려면	-7940
chec	-7941
dred	-7942
▁One	-7943
▁ing	-7944
▁obv	-7945
▁oce	-7946
▁강화로	-7947
▁다니는	-7948
▁된다는	-7949
▁두려워	-7950
▁명확한	-7951
▁모습을	-7952
▁방안이	-7953
▁여고생	-7954
▁여러분	-7955
▁유지할	-7956
▁자식을	-7957
▁죄책감	-7958
▁폐지되	-7959
▁diet	-7960
▁lots	-7961
▁사고력과	-7962
▁정부에서	-7963
▁제대로된	-7964
▁청소년과	-7965
하겠습니다	-7966
▁meant	-7967
▁truth	-7968
▁whose	-7969
▁대한민국을	-7970
▁보육교사의	-7971
▁존중하지만	-7972
cellent	-7973
▁assure	-7974
▁recent	-7975
▁reform	-7976
▁review	-7977
▁dealing	-7978
▁hundred	-7979
▁started	-7980
▁폐지시켜주세요	-7981
▁societal	-7982
▁constantly	-7983
▁discussion	-7984
▁ultimately	-7985
▁corporations	-7986
PL	-7987
▁꾸	-7988
▁탐	-7989
리라	-7990
보건	-7991
아도	-7992
지구	-7993
치에	-7994
▁Oh	-7995
▁Or	-7996
▁그저	-7997
▁놓고	-7998
▁도발	-7999
▁매년	-8000
▁배분	-8001
▁병원	-8002
▁부부	-8003
▁소재	-8004
▁알아	-8005
▁있지	-8006
▁충족	-8007
면서도	-8008
투성이	-8009
head	-8010
kind	-8011
▁But	-8012
▁bed	-8013
▁fil	-8014
▁sug	-8015
▁경악을	-8016
▁관리가	-8017
▁국가적	-8018
▁그러니	-8019
▁글로벌	-8020
▁다니고	-8021
▁대상이	-8022
▁더욱더	-8023
▁된다면	-8024
▁부당한	-8025
▁사각지	-8026
▁소수의	-8027
▁소중한	-8028
▁이들이	-8029
▁인간이	-8030
▁인류의	-8031
▁전환을	-8032
▁절차에	-8033
▁조치가	-8034
▁증가를	-8035
▁증가할	-8036
▁지키는	-8037
▁처벌도	-8038
▁취지는	-8039
▁환경에	-8040
▁환자의	-8041
▁code	-8042
▁rout	-8043
▁sole	-8044
▁sort	-8045
▁간선제로	-8046
▁강화된다	-8047
▁관련하여	-8048
▁교통사고	-8049
▁되었으면	-8050
▁저지르면	-8051
▁저해하고	-8052
▁절감되어	-8053
▁창작자의	-8054
employ	-8055
ishing	-8056
roduct	-8057
▁Women	-8058
▁allev	-8059
▁books	-8060
▁pregn	-8061
▁proof	-8062
▁무조건적인	-8063
▁범죄이므로	-8064
▁효율적으로	-8065
▁battle	-8066
▁devast	-8067
▁leaves	-8068
▁educate	-8069
▁operate	-8070
▁patient	-8071
▁perpetr	-8072
▁possess	-8073
▁reality	-8074
▁trained	-8075
▁wealthy	-8076
▁attorney	-8077
▁existing	-8078
▁includes	-8079
▁purchase	-8080
▁somebody	-8081
▁supports	-8082
▁terminal	-8083
▁continued	-8084
▁legalised	-8085
▁perfectly	-8086
▁somewhere	-8087
▁inherently	-8088
▁polygamous	-8089
▁subsidising	-8090
▁discriminated	-8091
▁낭	-8092
▁낼	-8093
▁헤	-8094
강릉	-8095
나서	-8096
말고	-8097
망을	-8098
수신	-8099
안전	-8100
양이	-8101
인상	-8102
자비	-8103
진국	-8104
하루	-8105
▁가만	-8106
▁강간	-8107
▁공직	-8108
▁매체	-8109
▁보셨	-8110
▁빠른	-8111
▁성공	-8112
▁않다	-8113
▁옳고	-8114
▁임대	-8115
▁자랑	-8116
▁죄에	-8117
▁주요	-8118
▁최고	-8119
▁출신	-8120
▁특혜	-8121
습관을	-8122
었는데	-8123
으므로	-8124
인건비	-8125
▁Lib	-8126
▁led	-8127
▁nur	-8128
▁건물에	-8129
▁보완이	-8130
▁비롯된	-8131
▁생기지	-8132
▁연장을	-8133
▁오염을	-8134
▁위험한	-8135
▁전환은	-8136
▁정의가	-8137
▁조장할	-8138
▁주체가	-8139
▁진입이	-8140
▁책임은	-8141
▁축산업	-8142
▁폭력에	-8143
▁확보할	-8144
eless	-8145
owers	-8146
▁appl	-8147
▁land	-8148
▁told	-8149
▁고속도로	-8150
▁공정성을	-8151
▁공평하게	-8152
▁범죄자로	-8153
▁사람들의	-8154
▁어른보다	-8155
▁왔습니다	-8156
▁유사수신	-8157
▁begin	-8158
▁initi	-8159
▁night	-8160
▁piece	-8161
▁relax	-8162
▁보호하려는	-8163
▁효과적이며	-8164
pective	-8165
▁advert	-8166
▁attend	-8167
▁couldn	-8168
▁design	-8169
▁parade	-8170
▁thanks	-8171
▁careers	-8172
▁founded	-8173
▁fulfill	-8174
▁learned	-8175
▁politic	-8176
▁predict	-8177
▁adoption	-8178
▁affected	-8179
▁designed	-8180
▁everyday	-8181
▁rewarded	-8182
▁assisting	-8183
▁offensive	-8184
▁collective	-8185
▁operations	-8186
▁backgrounds	-8187
▁intervention	-8188
ew	-8189
▁객	-8190
▁겨	-8191
▁클	-8192
▁흘	-8193
고가	-8194
년을	-8195
던지	-8196
리면	-8197
물을	-8198
병의	-8199
수는	-8200
어리	-8201
와서	-8202
죄를	-8203
징역	-8204
키우	-8205
평가	-8206
험생	-8207
eed	-8208
ral	-8209
▁sw	-8210
▁간호	-8211
▁경기	-8212
▁고립	-8213
▁그게	-8214
▁당당	-8215
▁리더	-8216
▁발언	-8217
▁사범	-8218
▁상담	-8219
▁어쩌	-8220
▁첫째	-8221
▁통행	-8222
▁포용	-8223
▁협력	-8224
것으로	-8225
공무원	-8226
깁니다	-8227
아파트	-8228
원으로	-8229
했는데	-8230
효과를	-8231
ened	-8232
oken	-8233
▁강하게	-8234
▁강화와	-8235
▁논의가	-8236
▁방지에	-8237
▁보여주	-8238
▁설치를	-8239
▁수술을	-8240
▁쓰레기	-8241
▁악용해	-8242
▁이끌어	-8243
▁인권이	-8244
▁재정적	-8245
▁종사자	-8246
▁주거비	-8247
▁평화를	-8248
▁형량이	-8249
아이들을	-8250
uries	-8251
▁Find	-8252
▁amaz	-8253
▁cell	-8254
▁orph	-8255
▁가능해져	-8256
▁관점에서	-8257
▁대응하기	-8258
▁분석하여	-8259
▁비만세는	-8260
▁사용하는	-8261
▁실명제를	-8262
▁환자들이	-8263
▁agend	-8264
▁claim	-8265
▁enfor	-8266
▁phone	-8267
▁전통적으로	-8268
itarian	-8269
▁Person	-8270
▁abuses	-8271
▁assass	-8272
▁ethnic	-8273
▁fairer	-8274
▁강화해주세요	-8275
▁알고있습니다	-8276
▁자기결정권을	-8277
▁Mission	-8278
▁Polygam	-8279
▁changed	-8280
▁disprop	-8281
▁forward	-8282
▁prosper	-8283
▁advances	-8284
▁american	-8285
▁contract	-8286
▁discover	-8287
▁material	-8288
▁salaries	-8289
▁survival	-8290
▁unemploy	-8291
▁universe	-8292
▁alleviate	-8293
▁excellent	-8294
▁predatory	-8295
▁wonderful	-8296
▁subsidised	-8297
▁throughout	-8298
▁disproportion	-8299
▁subsidization	-8300
▁“	-8301
▁땅	-8302
리로	-8303
미약	-8304
분들	-8305
안에	-8306
어난	-8307
유공	-8308
장려	-8309
한번	-8310
히고	-8311
mat	-8312
nel	-8313
ops	-8314
ron	-8315
▁IT	-8316
▁ep	-8317
▁감옥	-8318
▁것에	-8319
▁내가	-8320
▁물질	-8321
▁벌금	-8322
▁불균	-8323
▁불합	-8324
▁비례	-8325
▁상식	-8326
▁신용	-8327
▁안되	-8328
▁울타	-8329
▁원천	-8330
▁으로	-8331
▁이식	-8332
▁자주	-8333
▁직결	-8334
▁힘이	-8335
itud	-8336
room	-8337
▁key	-8338
▁가정의	-8339
▁근거로	-8340
▁기능이	-8341
▁나중에	-8342
▁당연한	-8343
▁무자비	-8344
▁성폭력	-8345
▁얼마전	-8346
▁예방할	-8347
▁이것은	-8348
▁이라는	-8349
▁자립과	-8350
▁줄이기	-8351
▁촉진할	-8352
▁침해로	-8353
셨습니다	-8354
어주세요	-8355
ience	-8356
onstr	-8357
▁Well	-8358
▁argu	-8359
▁link	-8360
▁rein	-8361
▁sens	-8362
▁west	-8363
▁wife	-8364
▁대통령이	-8365
▁아닌가요	-8366
▁어긋난다	-8367
▁언제까지	-8368
▁완화하는	-8369
▁유지하기	-8370
▁자연에서	-8371
▁초래하며	-8372
▁피투성이	-8373
▁prefe	-8374
▁story	-8375
▁total	-8376
▁결과적으로	-8377
▁대중교통은	-8378
▁예방보다는	-8379
▁청소년기에	-8380
▁체계적으로	-8381
▁beauty	-8382
▁contro	-8383
▁course	-8384
▁expand	-8385
▁judged	-8386
▁moment	-8387
▁unlike	-8388
▁국민으로서의	-8389
▁brought	-8390
▁exactly	-8391
▁extinct	-8392
▁fashion	-8393
▁involve	-8394
▁percent	-8395
▁청소년보호법의	-8396
▁demonstr	-8397
▁ultimate	-8398
▁investment	-8399
▁productivity	-8400
.)	-8401
^^	-8402
▁솔	-8403
가정	-8404
날이	-8405
무직	-8406
월에	-8407
일은	-8408
주시	-8409
ils	-8410
mer	-8411
omp	-8412
▁객관	-8413
▁공유	-8414
▁낙인	-8415
▁담보	-8416
▁동포	-8417
▁듣고	-8418
▁모국	-8419
▁분들	-8420
▁분해	-8421
▁신경	-8422
▁요인	-8423
▁유대	-8424
▁전직	-8425
▁제시	-8426
▁줄이	-8427
▁해양	-8428
▁헌신	-8429
▁힘써	-8430
같아요	-8431
다는건	-8432
하세요	-8433
isis	-8434
xual	-8435
▁typ	-8436
▁가로막	-8437
▁가족을	-8438
▁것이다	-8439
▁관련된	-8440
▁내용은	-8441
▁대화를	-8442
▁발생한	-8443
▁배우면	-8444
▁비슷한	-8445
▁수험생	-8446
▁신경을	-8447
▁신속히	-8448
▁어려울	-8449
▁왔으며	-8450
▁정의와	-8451
▁제한이	-8452
▁폭력은	-8453
ashes	-8454
▁came	-8455
▁cath	-8456
▁stra	-8457
▁높아지는	-8458
▁독립성과	-8459
▁보장해야	-8460
▁사회복지	-8461
▁살고있는	-8462
▁시절부터	-8463
▁유지하는	-8464
▁적용하는	-8465
▁제고된다	-8466
▁지급하는	-8467
▁창의성을	-8468
▁폐지해서	-8469
아야합니다	-8470
artial	-8471
▁music	-8472
▁wider	-8473
▁동성결혼의	-8474
▁딥페이크는	-8475
▁마땅합니다	-8476
▁악용된다는	-8477
▁없었습니다	-8478
▁운동선수의	-8479
▁정당화하는	-8480
▁플라스틱은	-8481
▁흡연자들이	-8482
▁crisis	-8483
▁funded	-8484
▁honest	-8485
▁plenty	-8486
▁simple	-8487
▁harvest	-8488
▁mankind	-8489
▁trusted	-8490
▁부산여중생사건	-8491
▁Algorith	-8492
▁accepted	-8493
▁endanger	-8494
▁protects	-8495
▁impartial	-8496
▁infertile	-8497
▁accessible	-8498
▁accordingly	-8499
▁competition	-8500
▁essentially	-8501
▁experiences	-8502
▁stereotypes	-8503
▁particularly	-8504
▁청소년보호법폐지해주세요	-8505
▁disadvantaged	-8506
▁environmental	-8507
▁Libertarianism	-8508
\'	-8509
vi	-8510
▁뛰	-8511
내용	-8512
등생	-8513
무도	-8514
미니	-8515
받은	-8516
상의	-8517
앗아	-8518
었고	-8519
욕을	-8520
저지	-8521
친다	-8522
aff	-8523
iod	-8524
ote	-8525
▁구속	-8526
▁내신	-8527
▁드러	-8528
▁또래	-8529
▁못해	-8530
▁비방	-8531
▁빈번	-8532
▁선처	-8533
▁여건	-8534
▁열어	-8535
▁영아	-8536
▁유출	-8537
▁잃게	-8538
▁지고	-8539
▁처분	-8540
다보니	-8541
식으로	-8542
일까요	-8543
rees	-8544
▁God	-8545
▁bon	-8546
▁기술을	-8547
▁맞다고	-8548
▁명예와	-8549
▁반영한	-8550
▁분노는	-8551
▁불편한	-8552
▁사례에	-8553
▁운영에	-8554
▁인격과	-8555
▁자유와	-8556
▁제공할	-8557
▁지원금	-8558
▁취지를	-8559
▁침해될	-8560
▁키우기	-8561
▁판단을	-8562
▁해서는	-8563
들에게는	-8564
렸습니다	-8565
inist	-8566
▁fees	-8567
▁heav	-8568
▁unit	-8569
▁warm	-8570
▁고려하면	-8571
▁공공기관	-8572
▁나라다운	-8573
▁문제라면	-8574
▁발생하고	-8575
▁생태계와	-8576
▁역효과를	-8577
▁유아교육	-8578
▁일자리를	-8579
▁전문성과	-8580
▁지원이라	-8581
▁충격적인	-8582
▁학생에게	-8583
acking	-8584
atures	-8585
▁Since	-8586
▁barri	-8587
▁goods	-8588
▁items	-8589
▁reput	-8590
▁스트레스를	-8591
▁피해자들은	-8592
▁assess	-8593
▁effort	-8594
▁engine	-8595
▁trauma	-8596
ribution	-8597
▁cheaper	-8598
▁clearly	-8599
▁counter	-8600
▁decided	-8601
▁explain	-8602
▁matters	-8603
▁articles	-8604
▁election	-8605
▁freedoms	-8606
▁software	-8607
▁Awareness	-8608
▁continues	-8609
▁reporting	-8610
▁substance	-8611
▁accurately	-8612
▁distraction	-8613
▁communication	-8614
▁뇌	-8615
▁밤	-8616
▁찍	-8617
▁척	-8618
명박	-8619
무서	-8620
부로	-8621
어진	-8622
장관	-8623
차가	-8624
하던	-8625
하자	-8626
tif	-8627
▁On	-8628
▁겪고	-8629
▁고작	-8630
▁기념	-8631
▁많으	-8632
▁매일	-8633
▁비윤	-8634
▁소외	-8635
▁쉬워	-8636
▁심사	-8637
▁안내	-8638
▁의심	-8639
▁작용	-8640
▁적합	-8641
▁조선	-8642
▁줘야	-8643
▁체육	-8644
▁통일	-8645
▁파괴	-8646
▁하시	-8647
▁한달	-8648
년동안	-8649
리고자	-8650
시켜야	-8651
위원회	-8652
ards	-8653
rike	-8654
▁hot	-8655
▁obs	-8656
▁sup	-8657
▁가만히	-8658
▁남성의	-8659
▁느끼는	-8660
▁단위의	-8661
▁등으로	-8662
▁리더십	-8663
▁마지막	-8664
▁면세는	-8665
▁명단에	-8666
▁문제점	-8667
▁미래에	-8668
▁미숙한	-8669
▁사라질	-8670
▁유포와	-8671
▁전통적	-8672
▁접하고	-8673
▁지하철	-8674
▁활동은	-8675
erate	-8676
riend	-8677
▁arch	-8678
▁cong	-8679
▁cope	-8680
▁fill	-8681
▁구체적인	-8682
▁근무하고	-8683
▁부주의로	-8684
▁수단이다	-8685
▁실현하는	-8686
▁엄마로써	-8687
▁위협받을	-8688
▁유도하는	-8689
▁제공하기	-8690
▁주장하는	-8691
▁진정으로	-8692
▁향상되고	-8693
▁현장에서	-8694
encies	-8695
strike	-8696
▁arbit	-8697
▁assum	-8698
▁badly	-8699
▁bonus	-8700
▁bound	-8701
▁clone	-8702
▁dying	-8703
▁repay	-8704
▁위협하므로	-8705
▁dollar	-8706
▁period	-8707
▁voices	-8708
▁미성년자라고	-8709
▁bullied	-8710
▁clients	-8711
▁conform	-8712
▁expense	-8713
▁exposed	-8714
▁happens	-8715
▁harming	-8716
▁selfish	-8717
▁teaches	-8718
▁totally	-8719
▁writing	-8720
▁investig	-8721
▁offenses	-8722
▁interpret	-8723
▁spiritual	-8724
▁advantages	-8725
▁biological	-8726
▁protections	-8727
▁marginalized	-8728
----------------	-8729
].	-8730
▁굉	-8731
▁뻔	-8732
▁혈	-8733
기사	-8734
년전	-8735
돌봄	-8736
려요	-8737
문이	-8738
스쿨	-8739
운데	-8740
적용	-8741
apt	-8742
rep	-8743
▁가고	-8744
▁갑질	-8745
▁갖추	-8746
▁개는	-8747
▁과제	-8748
▁나타	-8749
▁명백	-8750
▁무거	-8751
▁물을	-8752
▁보이	-8753
▁성실	-8754
▁쓰게	-8755
▁아침	-8756
▁연락	-8757
▁입법	-8758
▁제목	-8759
▁조절	-8760
▁충돌	-8761
겠다고	-8762
속에서	-8763
시키며	-8764
신문고	-8765
음에도	-8766
읍니다	-8767
▁atm	-8768
▁국가를	-8769
▁군사적	-8770
▁그렇고	-8771
▁긍정적	-8772
▁나라는	-8773
▁남용을	-8774
▁다하고	-8775
▁반성을	-8776
▁시험관	-8777
▁신고를	-8778
▁심판을	-8779
▁어른이	-8780
▁엄청난	-8781
▁원칙을	-8782
▁의사에	-8783
▁참여할	-8784
▁합니까	-8785
대한민국	-8786
주십시요	-8787
.....	-8788
▁Expl	-8789
▁Work	-8790
▁ends	-8791
▁hosp	-8792
▁none	-8793
▁plus	-8794
▁pose	-8795
▁post	-8796
▁rain	-8797
▁says	-8798
▁trap	-8799
▁고려하는	-8800
▁노동자의	-8801
▁무기징역	-8802
▁방식으로	-8803
▁여성전용	-8804
▁일방적인	-8805
▁일환으로	-8806
▁제한적일	-8807
iately	-8808
ifying	-8809
omfort	-8810
▁Given	-8811
▁Would	-8812
▁risky	-8813
▁않았습니다	-8814
▁하였습니다	-8815
▁coming	-8816
▁letter	-8817
▁raised	-8818
▁recomm	-8819
▁restau	-8820
▁safely	-8821
▁donated	-8822
▁reverse	-8823
▁hospital	-8824
▁improved	-8825
▁numerous	-8826
▁original	-8827
▁produces	-8828
▁relevant	-8829
▁문재인대통령님과	-8830
▁parenting	-8831
▁immediately	-8832
ob	-8833
▁+	-8834
▁님	-8835
▁밥	-8836
년도	-8837
빨리	-8838
성진	-8839
시를	-8840
잘못	-8841
증이	-8842
질환	-8843
ilt	-8844
isf	-8845
▁강요	-8846
▁공약	-8847
▁굉장	-8848
▁교체	-8849
▁나올	-8850
▁년이	-8851
▁높인	-8852
▁다들	-8853
▁독창	-8854
▁불과	-8855
▁솔직	-8856
▁실행	-8857
▁어떨	-8858
▁어제	-8859
▁우습	-8860
▁조차	-8861
▁졸업	-8862
▁하늘	-8863
는데요	-8864
되지만	-8865
임에도	-8866
자들은	-8867
ames	-8868
olic	-8869
▁eye	-8870
▁fed	-8871
▁gap	-8872
▁pup	-8873
▁van	-8874
▁걸리며	-8875
▁공동체	-8876
▁과학적	-8877
▁그것을	-8878
▁그만큼	-8879
▁다수의	-8880
▁부여로	-8881
▁분석이	-8882
▁비행을	-8883
▁아니다	-8884
▁않다고	-8885
▁인상과	-8886
▁인식을	-8887
▁인재의	-8888
▁있으면	-8889
▁제고에	-8890
▁차원의	-8891
▁참여를	-8892
▁투표에	-8893
아닙니다	-8894
야한다고	-8895
rants	-8896
▁anal	-8897
▁base	-8898
▁copy	-8899
▁coun	-8900
▁가해학생	-8901
▁반복되는	-8902
▁생명권을	-8903
▁식용으로	-8904
▁창의적인	-8905
▁함으로써	-8906
urance	-8907
▁Human	-8908
▁alive	-8909
▁apply	-8910
▁broad	-8911
▁greed	-8912
▁occup	-8913
▁rural	-8914
▁stuff	-8915
▁union	-8916
▁wives	-8917
▁없애주세요	-8918
▁유지되어야	-8919
osexual	-8920
▁atmosp	-8921
▁broken	-8922
▁conven	-8923
▁driver	-8924
▁exclud	-8925
▁moving	-8926
▁orphan	-8927
▁pupils	-8928
▁resort	-8929
▁toward	-8930
▁weight	-8931
▁Factory	-8932
▁Whaling	-8933
▁acquire	-8934
▁america	-8935
▁becomes	-8936
▁prepare	-8937
▁reduced	-8938
▁replace	-8939
▁staying	-8940
▁disaster	-8941
▁homeless	-8942
▁implement	-8943
▁instances	-8944
▁medicinal	-8945
▁overpopul	-8946
▁promoting	-8947
▁spreading	-8948
▁politicians	-8949
▁programming	-8950
▁transplants	-8951
▁overcrowding	-8952
▁complications	-8953
걸로	-8954
기치	-8955
년째	-8956
소에	-8957
시절	-8958
어날	-8959
었던	-8960
와는	-8961
음이	-8962
자리	-8963
적절	-8964
조치	-8965
직을	-8966
해보	-8967
해요	-8968
행동	-8969
행복	-8970
ded	-8971
iar	-8972
reg	-8973
▁금치	-8974
▁딸을	-8975
▁분산	-8976
▁비록	-8977
▁빠져	-8978
▁새로	-8979
▁수입	-8980
▁야간	-8981
▁연계	-8982
▁이것	-8983
▁이관	-8984
▁점이	-8985
▁제정	-8986
▁주지	-8987
▁지연	-8988
▁특권	-8989
▁할지	-8990
되므로	-8991
분들이	-8992
심리적	-8993
abet	-8994
adem	-8995
rast	-8996
▁aud	-8997
▁hit	-8998
▁mob	-8999
▁rap	-9000
▁것이라	-9001
▁그래도	-9002
▁기술이	-9003
▁나오지	-9004
▁문제인	-9005
▁배우고	-9006
▁별개로	-9007
▁보장이	-9008
▁사진을	-9009
▁생명의	-9010
▁세금은	-9011
▁소상공	-9012
▁수요가	-9013
▁수준이	-9014
▁실현을	-9015
▁안보를	-9016
▁없다면	-9017
▁유해한	-9018
▁의식을	-9019
▁이명박	-9020
▁저희의	-9021
▁페미니	-9022
▁하는게	-9023
▁한국의	-9024
▁형성할	-9025
아이들은	-9026
ously	-9027
point	-9028
▁embr	-9029
▁pack	-9030
▁가능성에	-9031
▁가해자에	-9032
▁국정원이	-9033
▁사라지지	-9034
▁있어서는	-9035
▁폭력사건	-9036
▁하루하루	-9037
encing	-9038
icious	-9039
▁email	-9040
▁needy	-9041
▁speed	-9042
▁visit	-9043
▁경제적으로	-9044
▁도덕적으로	-9045
▁rarely	-9046
▁specif	-9047
▁wishes	-9048
▁amazing	-9049
▁capture	-9050
▁complex	-9051
▁element	-9052
▁factors	-9053
▁highest	-9054
▁infrast	-9055
▁identity	-9056
▁decreases	-9057
▁interesting	-9058
▁contributing	-9059
▁governmental	-9060
▁infrastructure	-9061
▁떳	-9062
▁삭	-9063
▁챙	-9064
가서	-9065
더니	-9066
두순	-9067
등록	-9068
롭게	-9069
마땅	-9070
사관	-9071
서야	-9072
시대	-9073
알고	-9074
자격	-9075
훈련	-9076
lit	-9077
▁감염	-9078
▁같아	-9079
▁결코	-9080
▁구입	-9081
▁근데	-9082
▁나는	-9083
▁목숨	-9084
▁바탕	-9085
▁범법	-9086
▁보훈	-9087
▁선수	-9088
▁세월	-9089
▁수당	-9090
▁양산	-9091
▁유치	-9092
▁은폐	-9093
▁지은	-9094
▁혼자	-9095
음으로	-9096
잖아요	-9097
중학생	-9098
****	-9099
come	-9100
▁lay	-9101
▁usa	-9102
▁교육에	-9103
▁근무가	-9104
▁금지만	-9105
▁내용이	-9106
▁너무도	-9107
▁다자녀	-9108
▁박성진	-9109
▁보이지	-9110
▁선진국	-9111
▁소지가	-9112
▁실현될	-9113
▁안정성	-9114
▁없어야	-9115
▁올리는	-9116
▁있으니	-9117
▁저하로	-9118
▁접종을	-9119
▁조합원	-9120
▁주시길	-9121
▁중국의	-9122
▁증가와	-9123
▁충격을	-9124
▁통해서	-9125
▁학대는	-9126
▁해외에	-9127
살인사건	-9128
ading	-9129
thood	-9130
▁Priv	-9131
▁chat	-9132
▁docu	-9133
▁pict	-9134
▁symb	-9135
▁대부분의	-9136
▁대한축구	-9137
▁보호받지	-9138
▁상태에서	-9139
▁수단으로	-9140
▁아니지만	-9141
▁운영하고	-9142
▁의사결정	-9143
▁이번사건	-9144
▁이용하여	-9145
agraph	-9146
iation	-9147
worked	-9148
▁frequ	-9149
▁green	-9150
▁kinds	-9151
▁saved	-9152
▁scale	-9153
▁국민으로서	-9154
▁동물실험을	-9155
▁보호해주는	-9156
▁폭행사건은	-9157
▁adjust	-9158
▁bigger	-9159
▁gifted	-9160
▁impris	-9161
▁listen	-9162
▁purely	-9163
▁taught	-9164
▁Private	-9165
▁comprom	-9166
▁contain	-9167
▁elected	-9168
▁markets	-9169
▁useless	-9170
▁강화하기보다는	-9171
▁creation	-9172
▁finances	-9173
▁official	-9174
▁projects	-9175
▁straight	-9176
▁centuries	-9177
▁creatures	-9178
▁guarantee	-9179
▁respected	-9180
▁Television	-9181
▁atmosphere	-9182
▁terminally	-9183
▁Algorithmic	-9184
▁destructive	-9185
▁encouraging	-9186
▁performance	-9187
▁블	-9188
▁빌	-9189
▁쓸	-9190
▁좌	-9191
공사	-9192
님들	-9193
대책	-9194
뿐만	-9195
산층	-9196
서가	-9197
위에	-9198
인한	-9199
조사	-9200
활동	-9201
???	-9202
ams	-9203
ext	-9204
ike	-9205
▁간주	-9206
▁교원	-9207
▁궁금	-9208
▁기울	-9209
▁도구	-9210
▁뒤에	-9211
▁밝혀	-9212
▁방관	-9213
▁법과	-9214
▁설명	-9215
▁아실	-9216
▁앗아	-9217
▁완성	-9218
▁외곽	-9219
▁이하	-9220
▁인원	-9221
▁있던	-9222
▁전부	-9223
▁점차	-9224
▁커녕	-9225
▁협박	-9226
▁훈방	-9227
장으로	-9228
주시길	-9229
하시고	-9230
하지는	-9231
rary	-9232
▁aim	-9233
▁cyc	-9234
▁log	-9235
▁가능성	-9236
▁기대할	-9237
▁남용과	-9238
▁방식에	-9239
▁소통을	-9240
▁역사적	-9241
▁예기치	-9242
▁자립을	-9243
▁중산층	-9244
▁차별적	-9245
▁최대한	-9246
▁통합이	-9247
▁폐지에	-9248
▁행동의	-9249
▁행위에	-9250
▁확실히	-9251
▁활동과	-9252
▁힘없는	-9253
지않도록	-9254
해주시고	-9255
ihood	-9256
inate	-9257
light	-9258
tiful	-9259
▁Cont	-9260
▁chem	-9261
▁cool	-9262
▁cure	-9263
▁requ	-9264
▁star	-9265
▁개선해야	-9266
▁공무원의	-9267
▁노동법의	-9268
▁다뤄져야	-9269
▁맞습니다	-9270
▁미성숙한	-9271
▁바탕으로	-9272
▁부모로서	-9273
▁불가피한	-9274
▁사드배치	-9275
▁안된다는	-9276
▁연예인의	-9277
▁자신들이	-9278
▁제공하는	-9279
▁중시하는	-9280
▁축소하면	-9281
▁침해하는	-9282
▁특수학교	-9283
effect	-9284
▁These	-9285
▁turns	-9286
▁국민입니다	-9287
▁문제이지만	-9288
▁사실이지만	-9289
▁피해자에게	-9290
raising	-9291
▁caring	-9292
▁factor	-9293
▁inside	-9294
▁mostly	-9295
▁search	-9296
▁요청드립니다	-9297
▁Finally	-9298
▁chooses	-9299
▁efforts	-9300
▁partner	-9301
▁western	-9302
▁안전장치입니다	-9303
▁approach	-9304
▁followed	-9305
▁happened	-9306
ifications	-9307
omfortable	-9308
▁connection	-9309
▁initiatives	-9310
▁contributions	-9311
▁uncomfortable	-9312
HE	-9313
▁골	-9314
▁맥	-9315
▁멈	-9316
▁브	-9317
▁염	-9318
▁책	-9319
▁훨	-9320
감이	-9321
근로	-9322
금지	-9323
민주	-9324
봐야	-9325
수한	-9326
했을	-9327
WPL	-9328
acc	-9329
isc	-9330
law	-9331
urk	-9332
▁Hi	-9333
▁갖춘	-9334
▁건축	-9335
▁경질	-9336
▁그럴	-9337
▁길을	-9338
▁단어	-9339
▁따르	-9340
▁봐도	-9341
▁빼앗	-9342
▁선임	-9343
▁숨어	-9344
▁위함	-9345
▁조속	-9346
▁중복	-9347
▁진상	-9348
▁진출	-9349
▁커져	-9350
▁크고	-9351
갈수록	-9352
낍니다	-9353
시간을	-9354
왔으며	-9355
주시고	-9356
eral	-9357
know	-9358
term	-9359
▁alt	-9360
▁ste	-9361
▁간과한	-9362
▁간과할	-9363
▁감독의	-9364
▁개입이	-9365
▁걱정은	-9366
▁고소를	-9367
▁관계를	-9368
▁굉장히	-9369
▁교육청	-9370
▁그것도	-9371
▁기술적	-9372
▁나오는	-9373
▁마음에	-9374
▁무차별	-9375
▁발전에	-9376
▁복잡한	-9377
▁상태에	-9378
▁생리대	-9379
▁생명과	-9380
▁성과를	-9381
▁솔직히	-9382
▁신뢰할	-9383
▁없어서	-9384
▁위상을	-9385
▁인생을	-9386
▁적용을	-9387
▁조두순	-9388
▁태어나	-9389
▁특성상	-9390
▁판단할	-9391
▁폭행과	-9392
▁협력을	-9393
▁혜택이	-9394
고등학교	-9395
inary	-9396
prise	-9397
rific	-9398
▁Name	-9399
▁flaw	-9400
▁prol	-9401
▁가중되어	-9402
▁국민들은	-9403
▁만들어야	-9404
▁만들어진	-9405
▁실효성을	-9406
▁심신미약	-9407
▁악용하고	-9408
▁어른들이	-9409
▁잔인하게	-9410
▁저작권을	-9411
▁적절하지	-9412
▁전환하면	-9413
▁진심으로	-9414
▁확보해야	-9415
ealous	-9416
lusive	-9417
▁bully	-9418
▁conce	-9419
▁dedic	-9420
▁grown	-9421
▁style	-9422
▁throw	-9423
▁두렵습니다	-9424
iveness	-9425
olution	-9426
▁bottom	-9427
▁except	-9428
▁ground	-9429
▁harass	-9430
▁insure	-9431
▁mature	-9432
▁morals	-9433
▁office	-9434
▁symbol	-9435
▁thrive	-9436
▁unless	-9437
▁문재인정부는	-9438
▁청소년범죄가	-9439
▁Collect	-9440
▁dangers	-9441
▁farmers	-9442
▁needing	-9443
▁prayers	-9444
▁realize	-9445
▁traders	-9446
▁Describe	-9447
▁anywhere	-9448
▁breaking	-9449
▁critical	-9450
▁elements	-9451
▁interact	-9452
▁limiting	-9453
▁opposite	-9454
▁sanction	-9455
▁stopping	-9456
▁addiction	-9457
▁basically	-9458
▁beautiful	-9459
▁confusing	-9460
▁regularly	-9461
▁targeting	-9462
▁typically	-9463
▁acceptance	-9464
▁appreciate	-9465
▁oppression	-9466
▁overworked	-9467
▁sufficient	-9468
▁efficiently	-9469
▁representative	-9470
io	-9471
▁x	-9472
▁됐	-9473
▁짐	-9474
거죠	-9475
공단	-9476
과정	-9477
구나	-9478
나오	-9479
대화	-9480
뜨릴	-9481
병을	-9482
영업	-9483
이어	-9484
lex	-9485
▁가면	-9486
▁감당	-9487
▁격리	-9488
▁균등	-9489
▁급증	-9490
▁누굴	-9491
▁떳떳	-9492
▁문을	-9493
▁법정	-9494
▁사적	-9495
▁살해	-9496
▁않으	-9497
▁요새	-9498
▁유족	-9499
▁이사	-9500
▁자랄	-9501
▁재판	-9502
▁주식	-9503
▁즉각	-9504
▁지향	-9505
▁출근	-9506
▁취득	-9507
▁치밀	-9508
▁크다	-9509
▁행태	-9510
▁훨씬	-9511
▁휘둘	-9512
▁힘을	-9513
거라고	-9514
itch	-9515
ogue	-9516
uits	-9517
▁cra	-9518
▁hal	-9519
▁lau	-9520
▁nar	-9521
▁개정해	-9522
▁부적절	-9523
▁불필요	-9524
▁아버지	-9525
▁어려서	-9526
▁우습게	-9527
▁원인이	-9528
▁유일한	-9529
▁이들은	-9530
▁이들을	-9531
▁이전에	-9532
▁창작의	-9533
▁학생들	-9534
allen	-9535
arent	-9536
cious	-9537
itude	-9538
orary	-9539
rough	-9540
unate	-9541
▁Even	-9542
▁Give	-9543
▁fort	-9544
▁경쟁력을	-9545
▁계속해서	-9546
▁국제사회	-9547
▁끔찍하고	-9548
▁보호처분	-9549
▁살아가야	-9550
▁아픕니다	-9551
▁올바르게	-9552
▁자동으로	-9553
▁정의로운	-9554
▁하루빨리	-9555
abetes	-9556
▁offic	-9557
▁기술적으로	-9558
▁심각합니다	-9559
▁우리나라가	-9560
▁원천적으로	-9561
▁인천초등생	-9562
▁지역에서는	-9563
▁해결보다는	-9564
▁academ	-9565
▁earned	-9566
▁strict	-9567
▁worker	-9568
▁청소년에게는	-9569
▁Explain	-9570
▁aspects	-9571
▁assured	-9572
▁challen	-9573
▁focused	-9574
▁청소년보호법과	-9575
▁machines	-9576
▁subjects	-9577
▁computers	-9578
▁organized	-9579
▁ownership	-9580
▁universities	-9581
▁찢	-9582
▁황	-9583
▁횡	-9584
가능	-9585
곳에	-9586
구에	-9587
내고	-9588
는게	-9589
두고	-9590
럼프	-9591
실한	-9592
십쇼	-9593
우며	-9594
행정	-9595
iss	-9596
oly	-9597
▁Ye	-9598
▁늘고	-9599
▁대다	-9600
▁대형	-9601
▁많을	-9602
▁명의	-9603
▁모른	-9604
▁모순	-9605
▁부를	-9606
▁성주	-9607
▁예상	-9608
▁위로	-9609
▁인성	-9610
▁입은	-9611
▁자세	-9612
▁작년	-9613
▁전형	-9614
▁처럼	-9615
▁철회	-9616
▁추세	-9617
▁충동	-9618
▁탐색	-9619
법으로	-9620
의료를	-9621
인에게	-9622
행위를	-9623
erve	-9624
ffee	-9625
ilst	-9626
ocks	-9627
orry	-9628
▁Are	-9629
▁sns	-9630
▁감독을	-9631
▁감소로	-9632
▁같아요	-9633
▁군대를	-9634
▁다주택	-9635
▁보육의	-9636
▁본질을	-9637
▁빈곤을	-9638
▁사람들	-9639
▁살인을	-9640
▁서울시	-9641
▁선택권	-9642
▁세상을	-9643
▁시급한	-9644
▁아닌가	-9645
▁악용될	-9646
▁약하게	-9647
▁없네요	-9648
▁여부를	-9649
▁자국민	-9650
▁저하를	-9651
▁전문가	-9652
▁정확히	-9653
▁줄어든	-9654
▁증가해	-9655
▁집행과	-9656
▁투자와	-9657
▁폐지로	-9658
utral	-9659
▁Stud	-9660
▁sale	-9661
▁sets	-9662
▁국가에서	-9663
▁대응해야	-9664
▁아닐까요	-9665
▁안심하고	-9666
▁않는다면	-9667
▁엄벌보다	-9668
▁완벽하지	-9669
▁운영되고	-9670
▁운영하는	-9671
▁이루어질	-9672
▁이뤄져야	-9673
▁이용률을	-9674
▁처벌강화	-9675
▁해결하고	-9676
inform	-9677
inistr	-9678
onomic	-9679
theism	-9680
ulated	-9681
▁brown	-9682
▁drain	-9683
▁drunk	-9684
▁merit	-9685
▁norms	-9686
▁slipp	-9687
▁tools	-9688
▁trick	-9689
▁국민신문고	-9690
▁사회적으로	-9691
▁안정적으로	-9692
▁어린이집에	-9693
▁유발하므로	-9694
▁청년입니다	-9695
▁Execut	-9696
▁States	-9697
▁Target	-9698
▁biases	-9699
▁bodily	-9700
▁cloned	-9701
▁commer	-9702
▁commod	-9703
▁deters	-9704
▁fairly	-9705
▁fields	-9706
▁output	-9707
▁passed	-9708
▁solely	-9709
▁stifle	-9710
▁superv	-9711
▁소년법이라는	-9712
redients	-9713
▁decades	-9714
▁defence	-9715
▁happier	-9716
▁jealous	-9717
▁largely	-9718
▁whoever	-9719
▁Polygamy	-9720
▁adequate	-9721
▁contains	-9722
▁hundreds	-9723
▁involves	-9724
▁parental	-9725
▁americans	-9726
▁convicted	-9727
▁excessive	-9728
▁strengths	-9729
▁surgeries	-9730
▁convenient	-9731
▁destroying	-9732
▁eliminated	-9733
▁experienced	-9734
▁environments	-9735
▁consideration	-9736
ᅮᅮ	-9737
▁Q	-9738
▁택	-9739
그러	-9740
단지	-9741
두리	-9742
먹고	-9743
비로	-9744
생이	-9745
프로	-9746
함과	-9747
nia	-9748
ued	-9749
▁US	-9750
▁건전	-9751
▁광주	-9752
▁다가	-9753
▁되돌	-9754
▁많고	-9755
▁먹고	-9756
▁면허	-9757
▁불이	-9758
▁서류	-9759
▁시술	-9760
▁업적	-9761
▁역행	-9762
▁예정	-9763
▁유기	-9764
▁자리	-9765
▁전술	-9766
▁전투	-9767
▁조폭	-9768
▁징역	-9769
▁치중	-9770
▁커서	-9771
▁퇴직	-9772
▁휴일	-9773
답니다	-9774
라구요	-9775
범죄가	-9776
야하는	-9777
줍니다	-9778
duct	-9779
teer	-9780
used	-9781
▁mil	-9782
▁unh	-9783
▁via	-9784
▁가슴아	-9785
▁가중될	-9786
▁개선할	-9787
▁결정에	-9788
▁나날이	-9789
▁대안을	-9790
▁맞벌이	-9791
▁모두의	-9792
▁모르겠	-9793
▁무엇이	-9794
▁본인의	-9795
▁분명한	-9796
▁수준을	-9797
▁않는다	-9798
▁알아야	-9799
▁여성은	-9800
▁오류나	-9801
▁요즘은	-9802
▁제도로	-9803
▁조치는	-9804
▁처벌에	-9805
▁청원이	-9806
▁혁신을	-9807
andom	-9808
orate	-9809
▁cold	-9810
▁draw	-9811
▁user	-9812
▁강조하는	-9813
▁경우에는	-9814
▁반복되어	-9815
▁불평등이	-9816
▁비인도적	-9817
▁사건사고	-9818
▁사형제도	-9819
▁살아가고	-9820
▁상관없이	-9821
▁악용해서	-9822
▁외면하는	-9823
▁정책으로	-9824
▁집단폭행	-9825
▁필요하지	-9826
마땅합니다	-9827
osters	-9828
▁advoc	-9829
▁drink	-9830
▁monet	-9831
▁quant	-9832
▁vehic	-9833
▁가해자들의	-9834
▁민주주의의	-9835
▁심각해지고	-9836
▁여성가족부	-9837
▁적극적으로	-9838
▁형사처벌을	-9839
resents	-9840
▁coffee	-9841
▁random	-9842
▁salary	-9843
▁안타깝습니다	-9844
▁applied	-9845
▁holding	-9846
▁lasting	-9847
▁minutes	-9848
▁paychec	-9849
▁wanting	-9850
▁배제하기보다는	-9851
effective	-9852
▁carrying	-9853
▁diabetes	-9854
▁guidance	-9855
▁prepared	-9856
▁condition	-9857
▁background	-9858
▁reasonable	-9859
▁represents	-9860
▁capabilities	-9861
▁organisation	-9862
gg	-9863
▁!	-9864
▁꺼	-9865
▁옆	-9866
▁컴	-9867
등급	-9868
등의	-9869
미성	-9870
여도	-9871
우고	-9872
전문	-9873
점은	-9874
정치	-9875
지기	-9876
치료	-9877
피해	-9878
aic	-9879
aks	-9880
aul	-9881
ium	-9882
▁De	-9883
▁계신	-9884
▁고발	-9885
▁구할	-9886
▁남의	-9887
▁내년	-9888
▁단기	-9889
▁딸이	-9890
▁무단	-9891
▁보안	-9892
▁부끄	-9893
▁살펴	-9894
▁양심	-9895
▁얘기	-9896
▁위원	-9897
▁유입	-9898
▁입증	-9899
▁전세	-9900
▁전자	-9901
▁좀더	-9902
▁중에	-9903
▁짓밟	-9904
▁편향	-9905
명이나	-9906
선생님	-9907
시대에	-9908
아이들	-9909
주시기	-9910
칩니다	-9911
하라는	-9912
행동을	-9913
iety	-9914
lies	-9915
pons	-9916
▁All	-9917
▁anx	-9918
▁bar	-9919
▁개선은	-9920
▁개정은	-9921
▁걱정을	-9922
▁검사를	-9923
▁경쟁을	-9924
▁경찰이	-9925
▁국민들	-9926
▁군대에	-9927
▁기관의	-9928
▁대우를	-9929
▁되도록	-9930
▁마시고	-9931
▁무거운	-9932
▁문제시	-9933
▁미흡한	-9934
▁방법이	-9935
▁배출을	-9936
▁본인이	-9937
▁사고력	-9938
▁사라져	-9939
▁생기고	-9940
▁수사가	-9941
▁스마트	-9942
▁실효성	-9943
▁않다는	-9944
▁여건을	-9945
▁여성이	-9946
▁외부의	-9947
▁우려를	-9948
▁우회가	-9949
▁유가족	-9950
▁참으로	-9951
▁최소화	-9952
▁폐지할	-9953
▁폭행에	-9954
▁하나의	-9955
agree	-9956
ifies	-9957
mates	-9958
oring	-9959
reate	-9960
ricul	-9961
worth	-9962
▁Safe	-9963
▁Then	-9964
▁ages	-9965
▁diss	-9966
▁duty	-9967
▁ease	-9968
▁irre	-9969
▁teen	-9970
▁wild	-9971
▁가능하며	-9972
▁개선으로	-9973
▁개선하고	-9974
▁노출시킬	-9975
▁느낍니다	-9976
▁늘어나는	-9977
▁도모해야	-9978
▁많아지고	-9979
▁모색해야	-9980
▁보호해주	-9981
▁생활비가	-9982
▁중산층과	-9983
▁처우개선	-9984
▁초등돌봄	-9985
▁환자에게	-9986
▁힘듭니다	-9987
ground	-9988
idemic	-9989
▁ahead	-9990
▁bills	-9991
▁breed	-9992
▁cures	-9993
▁fatal	-9994
▁guess	-9995
▁holds	-9996
▁minds	-9997
▁sends	-9998
▁usage	-9999
▁반별인건비	-10000
▁정밀의료를	-10001
▁지방자치의	-10002
▁행위이므로	-10003
▁attach	-10004
▁doctor	-10005
▁impose	-10006
▁saying	-10007
▁unsafe	-10008
▁whilst	-10009
▁Atheism	-10010
▁cruelty	-10011
▁despite	-10012
▁failure	-10013
▁firearm	-10014
▁impacts	-10015
▁painful	-10016
▁primary	-10017
▁turnout	-10018
▁catholic	-10019
▁consumer	-10020
▁epidemic	-10021
▁features	-10022
▁removing	-10023
▁slippery	-10024
▁unlikely	-10025
▁폐지부탁드립니다	-10026
▁administr	-10027
▁authority	-10028
▁detainees	-10029
▁immediate	-10030
▁medically	-10031
▁viewpoint	-10032
폐지되어야마땅합니다	-10033
▁abandoning	-10034
▁enterprise	-10035
▁management	-10036
▁oppressive	-10037
▁statistics	-10038
▁devastating	-10039
▁prohibiting	-10040
▁independence	-10041
▁technologies	-10042
▁technological	-10043
HO	-10044
니요	-10045
대상	-10046
데요	-10047
방송	-10048
사항	-10049
수에	-10050
신청	-10051
이가	-10052
이죠	-10053
자동	-10054
쳐야	-10055
mor	-10056
ole	-10057
▁TV	-10058
▁거부	-10059
▁겪는	-10060
▁관대	-10061
▁남아	-10062
▁남편	-10063
▁내는	-10064
▁맥락	-10065
▁바른	-10066
▁방사	-10067
▁수시	-10068
▁시도	-10069
▁신상	-10070
▁아들	-10071
▁약자	-10072
▁없게	-10073
▁위헌	-10074
▁이와	-10075
▁점검	-10076
▁통과	-10077
문재인	-10078
생활을	-10079
졌다고	-10080
졌다는	-10081
하나요	-10082
▁Ind	-10083
▁hat	-10084
▁감소와	-10085
▁고통과	-10086
▁그러한	-10087
▁남성과	-10088
▁담배를	-10089
▁들어가	-10090
▁무엇을	-10091
▁무책임	-10092
▁문제와	-10093
▁문화를	-10094
▁발전소	-10095
▁부족과	-10096
▁사고와	-10097
▁생각할	-10098
▁안전에	-10099
▁안타까	-10100
▁위기에	-10101
▁위축될	-10102
▁이해할	-10103
▁일삼는	-10104
▁일으킨	-10105
▁전제로	-10106
▁지역의	-10107
▁타인을	-10108
▁트럼프	-10109
▁폭행이	-10110
▁하는것	-10111
▁한반도	-10112
▁행동과	-10113
▁현실은	-10114
▁효과는	-10115
asion	-10116
field	-10117
lling	-10118
▁onto	-10119
▁root	-10120
▁yeah	-10121
▁감염병의	-10122
▁공공보건	-10123
▁무기계약	-10124
▁법입니까	-10125
▁사랑하는	-10126
▁엄마로서	-10127
▁여러가지	-10128
▁있습니까	-10129
▁있음에도	-10130
▁책임져야	-10131
▁추구하는	-10132
▁투명성과	-10133
▁플랫폼의	-10134
▁피해자만	-10135
▁ideal	-10136
▁plant	-10137
▁sales	-10138
▁slope	-10139
▁split	-10140
▁staff	-10141
▁track	-10142
▁uncon	-10143
▁voted	-10144
▁공간에서의	-10145
▁노키즈존은	-10146
▁말도안되는	-10147
▁비윤리적인	-10148
▁사람들에게	-10149
▁시켜주세요	-10150
▁악용한다는	-10151
▁학교폭력이	-10152
▁houses	-10153
▁intent	-10154
▁satisf	-10155
▁환경으로부터	-10156
▁Support	-10157
▁Without	-10158
▁biggest	-10159
▁letting	-10160
▁reading	-10161
▁academic	-10162
▁barriers	-10163
▁believes	-10164
▁employee	-10165
▁offering	-10166
▁behaviors	-10167
▁solutions	-10168
▁strategies	-10169
▁communicate	-10170
▁ingredients	-10171
▁maintaining	-10172
CT	-10173
▁닫	-10174
▁빚	-10175
▁티	-10176
▁흥	-10177
감사	-10178
경제	-10179
과목	-10180
님의	-10181
려도	-10182
르지	-10183
말로	-10184
명한	-10185
모씨	-10186
받아	-10187
사로	-10188
성의	-10189
여야	-10190
운영	-10191
인과	-10192
차례	-10193
청산	-10194
aid	-10195
ane	-10196
cri	-10197
dle	-10198
irt	-10199
new	-10200
▁Af	-10201
▁ip	-10202
▁가게	-10203
▁감면	-10204
▁고정	-10205
▁고착	-10206
▁깨닫	-10207
▁나서	-10208
▁다신	-10209
▁등에	-10210
▁많았	-10211
▁명시	-10212
▁명절	-10213
▁모욕	-10214
▁방패	-10215
▁석면	-10216
▁소수	-10217
▁시달	-10218
▁아님	-10219
▁왕따	-10220
▁요소	-10221
▁용납	-10222
▁응시	-10223
▁정권	-10224
▁종사	-10225
▁추석	-10226
▁탄핵	-10227
▁하니	-10228
▁협의	-10229
니까요	-10230
되어서	-10231
리거나	-10232
장려금	-10233
폐기물	-10234
하는것	-10235
하였고	-10236
olve	-10237
ride	-10238
▁aff	-10239
▁emb	-10240
▁sad	-10241
▁wip	-10242
▁공익적	-10243
▁광고를	-10244
▁구조와	-10245
▁기회도	-10246
▁뉴스에	-10247
▁당신의	-10248
▁로스쿨	-10249
▁리스크	-10250
▁말아야	-10251
▁미치는	-10252
▁신중히	-10253
▁여부는	-10254
▁예전의	-10255
▁요구를	-10256
▁이유를	-10257
▁자원을	-10258
▁전쟁을	-10259
▁절차적	-10260
▁정수를	-10261
▁청원에	-10262
▁하는지	-10263
▁했지만	-10264
자입니다	-10265
주택조합	-10266
adays	-10267
arcer	-10268
oking	-10269
urate	-10270
▁Fast	-10271
▁Yeah	-10272
▁bank	-10273
▁boys	-10274
▁edit	-10275
▁fame	-10276
▁inju	-10277
▁misc	-10278
▁nurt	-10279
▁wasn	-10280
▁whom	-10281
▁가중처벌	-10282
▁강화보다	-10283
▁개인적인	-10284
▁것이므로	-10285
▁공간에서	-10286
▁나이제한	-10287
▁더이상은	-10288
▁모릅니다	-10289
▁바입니다	-10290
▁발달하여	-10291
▁벌어지고	-10292
▁보호라는	-10293
▁비효율적	-10294
▁생각해보	-10295
▁시민에게	-10296
▁알면서도	-10297
▁폐지보다	-10298
anging	-10299
orders	-10300
▁Every	-10301
▁cents	-10302
▁cycle	-10303
▁males	-10304
▁moved	-10305
▁neigh	-10306
▁quite	-10307
▁sorry	-10308
▁tyran	-10309
▁undue	-10310
▁강화되어야	-10311
▁기간제교사	-10312
▁모르겠지만	-10313
▁못했습니다	-10314
▁문제임에는	-10315
▁범죄자들이	-10316
▁분해되는데	-10317
▁조금이라도	-10318
▁주장합니다	-10319
▁처벌받아야	-10320
▁허용하므로	-10321
▁히딩크감독	-10322
chooled	-10323
iquated	-10324
through	-10325
▁applic	-10326
▁deadly	-10327
▁denied	-10328
▁facing	-10329
▁filled	-10330
▁injust	-10331
▁masses	-10332
▁months	-10333
▁racist	-10334
▁resent	-10335
▁uphold	-10336
▁vanity	-10337
▁Contrib	-10338
▁anxiety	-10339
▁central	-10340
▁context	-10341
▁convert	-10342
▁decline	-10343
▁neutral	-10344
▁regards	-10345
▁rewards	-10346
▁serving	-10347
▁Targeted	-10348
▁chemical	-10349
▁civilian	-10350
▁curricul	-10351
▁disagree	-10352
▁exploits	-10353
▁incarcer	-10354
▁injuries	-10355
▁nowadays	-10356
▁relative	-10357
▁replaced	-10358
▁connected	-10359
▁destroyed	-10360
▁disfigure	-10361
▁investing	-10362
▁isolation	-10363
▁necessity	-10364
▁permitted	-10365
▁antiquated	-10366
▁guaranteed	-10367
▁moderation	-10368
▁principles	-10369
▁undermines	-10370
▁breakthrough	-10371
▁exploitative	-10372
▁historically	-10373
▁participants	-10374
▁Contributions	-10375
ᅳᅳ	-10376
▁듯	-10377
▁붙	-10378
가의	-10379
건축	-10380
고도	-10381
근무	-10382
보내	-10383
보조	-10384
산부	-10385
안부	-10386
예요	-10387
위로	-10388
인권	-10389
지마	-10390
집단	-10391
처리	-10392
청원	-10393
학을	-10394
erv	-10395
ien	-10396
▁Ab	-10397
▁ow	-10398
▁가산	-10399
▁간접	-10400
▁곳이	-10401
▁공립	-10402
▁교도	-10403
▁규모	-10404
▁그리	-10405
▁극소	-10406
▁늘려	-10407
▁더한	-10408
▁몇년	-10409
▁반사	-10410
▁보낼	-10411
▁소유	-10412
▁수급	-10413
▁순간	-10414
▁시키	-10415
▁신설	-10416
▁의도	-10417
▁의한	-10418
▁적은	-10419
▁조세	-10420
▁죄가	-10421
▁주며	-10422
▁채무	-10423
▁청소	-10424
▁토론	-10425
▁표준	-10426
▁해산	-10427
▁해지	-10428
다는게	-10429
문제가	-10430
미사일	-10431
범죄에	-10432
씁니다	-10433
없다고	-10434
에대해	-10435
자동차	-10436
aign	-10437
gust	-10438
haps	-10439
iver	-10440
norm	-10441
oned	-10442
osen	-10443
rust	-10444
unch	-10445
wide	-10446
▁dig	-10447
▁ske	-10448
▁sun	-10449
▁가져야	-10450
▁걱정과	-10451
▁고용이	-10452
▁공기업	-10453
▁교정을	-10454
▁낮추는	-10455
▁마련이	-10456
▁민원을	-10457
▁반응일	-10458
▁발달을	-10459
▁범죄와	-10460
▁보내고	-10461
▁부부의	-10462
▁사리사	-10463
▁실수요	-10464
▁아무렇	-10465
▁안보와	-10466
▁업무를	-10467
▁유대를	-10468
▁이용이	-10469
▁있는게	-10470
▁자영업	-10471
▁적어도	-10472
▁적용은	-10473
▁주므로	-10474
▁지으면	-10475
▁치료의	-10476
▁했는데	-10477
▁향상이	-10478
▁혼잡과	-10479
apers	-10480
iques	-10481
▁abst	-10482
▁burn	-10483
▁fuel	-10484
▁shel	-10485
▁town	-10486
▁가르치는	-10487
▁강화되고	-10488
▁공정하고	-10489
▁국민들을	-10490
▁기반으로	-10491
▁난임부부	-10492
▁면죄부를	-10493
▁범죄행위	-10494
▁부정하는	-10495
▁불공정한	-10496
▁비극적인	-10497
▁식습관을	-10498
▁악화시킬	-10499
▁약화시켜	-10500
▁위축시킬	-10501
▁유도하고	-10502
▁인식하고	-10503
▁인정해야	-10504
▁임용고시	-10505
▁접근해야	-10506
▁주식회사	-10507
▁처벌받지	-10508
▁처음으로	-10509
▁치료하고	-10510
리겠습니다	-10511
normal	-10512
▁above	-10513
▁gains	-10514
▁ocean	-10515
▁table	-10516
▁tends	-10517
▁veget	-10518
▁간과해서는	-10519
▁긍정적으로	-10520
▁대기오염과	-10521
▁수험생들이	-10522
▁실정입니다	-10523
▁어린이집을	-10524
▁이런일들이	-10525
▁United	-10526
▁chosen	-10527
▁concer	-10528
▁trades	-10529
▁국공립유치원	-10530
▁필수적입니다	-10531
atically	-10532
▁However	-10533
▁depends	-10534
▁minimum	-10535
▁tension	-10536
▁weekend	-10537
ibilities	-10538
▁familiar	-10539
▁talented	-10540
▁늘어나고있습니다	-10541
▁receiving	-10542
▁wellbeing	-10543
▁experiment	-10544
▁negatively	-10545
▁부산여중생폭행사건을	-10546
▁competitive	-10547
▁established	-10548
▁significant	-10549
__	-10550
▁돼	-10551
▁죗	-10552
도시	-10553
든지	-10554
량을	-10555
명은	-10556
없어	-10557
었다	-10558
운동	-10559
이를	-10560
인은	-10561
자라	-10562
저는	-10563
했다	-10564
혹한	-10565
une	-10566
usb	-10567
▁--	-10568
▁ap	-10569
▁iq	-10570
▁nu	-10571
▁가야	-10572
▁거리	-10573
▁검사	-10574
▁고생	-10575
▁교복	-10576
▁기록	-10577
▁내세	-10578
▁느낌	-10579
▁대리	-10580
▁몰아	-10581
▁변호	-10582
▁보급	-10583
▁상명	-10584
▁소송	-10585
▁시청	-10586
▁심의	-10587
▁쓰고	-10588
▁어쩔	-10589
▁오진	-10590
▁육체	-10591
▁잠재	-10592
▁재기	-10593
▁저와	-10594
▁제출	-10595
▁중등	-10596
▁파업	-10597
겠어요	-10598
미성년	-10599
하려고	-10600
했지만	-10601
adic	-10602
arty	-10603
ogam	-10604
olen	-10605
time	-10606
▁dou	-10607
▁rob	-10608
▁unb	-10609
▁unt	-10610
▁가운데	-10611
▁경우도	-10612
▁경쟁력	-10613
▁공간을	-10614
▁과정을	-10615
▁국가에	-10616
▁그렇지	-10617
▁기관이	-10618
▁김정은	-10619
▁나가야	-10620
▁나오고	-10621
▁달성에	-10622
▁대체할	-10623
▁못한다	-10624
▁범위를	-10625
▁복지와	-10626
▁봐주는	-10627
▁사업을	-10628
▁사이의	-10629
▁생각도	-10630
▁예방적	-10631
▁요구는	-10632
▁용도로	-10633
▁우선순	-10634
▁의문이	-10635
▁의식이	-10636
▁이미지	-10637
▁전체가	-10638
▁절차와	-10639
▁정도를	-10640
▁조사와	-10641
▁지도를	-10642
▁집중과	-10643
▁축소될	-10644
▁크다는	-10645
▁학교가	-10646
▁한부모	-10647
▁현실적	-10648
▁형벌을	-10649
▁형성과	-10650
일입니다	-10651
주셨으면	-10652
adequ	-10653
round	-10654
▁deny	-10655
▁exch	-10656
▁fish	-10657
▁flow	-10658
▁glad	-10659
▁husb	-10660
▁spot	-10661
▁syri	-10662
▁uphe	-10663
▁wage	-10664
▁무섭네요	-10665
▁무시하고	-10666
▁법인가요	-10667
▁사교육비	-10668
▁사람에게	-10669
▁사회복무	-10670
▁생산성이	-10671
▁아무것도	-10672
▁안타깝고	-10673
▁어려워져	-10674
▁의존하면	-10675
▁자신들의	-10676
▁좋습니다	-10677
▁촉진하고	-10678
▁판단하는	-10679
▁폭력적인	-10680
▁displ	-10681
▁flour	-10682
▁inapp	-10683
▁insec	-10684
▁label	-10685
▁meals	-10686
▁monop	-10687
▁newsp	-10688
▁range	-10689
▁sides	-10690
▁개정되어야	-10691
▁나이입니다	-10692
▁보장되어야	-10693
▁사용자들은	-10694
▁스포츠강사	-10695
▁해야한다고	-10696
alistic	-10697
▁agenda	-10698
▁hacked	-10699
▁hiring	-10700
▁record	-10701
▁served	-10702
▁stolen	-10703
▁viewed	-10704
▁저소득층에게	-10705
▁초등돌봄교실	-10706
gression	-10707
▁affects	-10708
▁desired	-10709
▁enhance	-10710
▁fosters	-10711
▁inadequ	-10712
▁liberty	-10713
▁million	-10714
▁mistake	-10715
▁monogam	-10716
▁teacher	-10717
▁turning	-10718
▁undergo	-10719
▁violate	-10720
▁campaign	-10721
▁conceive	-10722
▁isolated	-10723
▁officers	-10724
▁previous	-10725
▁sexually	-10726
▁certainly	-10727
▁dictators	-10728
▁judgement	-10729
▁prejudice	-10730
▁selective	-10731
▁seriously	-10732
▁temporary	-10733
▁Missionary	-10734
▁convention	-10735
▁homosexual	-10736
▁performing	-10737
▁recognized	-10738
▁techniques	-10739
▁advancement	-10740
▁battlefield	-10741
▁discoveries	-10742
▁unrealistic	-10743
▁Collectivism	-10744
▁advancements	-10745
▁breakthroughs	-10746
▁discriminates	-10747
▁넓	-10748
▁쌍	-10749
▁쳐	-10750
량이	-10751
문을	-10752
문의	-10753
심한	-10754
여서	-10755
역시	-10756
원도	-10757
으신	-10758
을지	-10759
자기	-10760
져서	-10761
지급	-10762
차피	-10763
테고	-10764
해진	-10765
후보	-10766
히는	-10767
aud	-10768
ina	-10769
▁Be	-10770
▁ut	-10771
▁공론	-10772
▁기미	-10773
▁길이	-10774
▁나가	-10775
▁나쁘	-10776
▁낮춰	-10777
▁낳아	-10778
▁등이	-10779
▁만족	-10780
▁모호	-10781
▁발암	-10782
▁범행	-10783
▁법령	-10784
▁세워	-10785
▁소름	-10786
▁소홀	-10787
▁쓰는	-10788
▁악법	-10789
▁안에	-10790
▁연차	-10791
▁이럴	-10792
▁인도	-10793
▁입시	-10794
▁저를	-10795
▁중고	-10796
▁진료	-10797
▁찢어	-10798
▁폐기	-10799
▁한계	-10800
▁합격	-10801
▁홍보	-10802
▁화장	-10803
▁흐름	-10804
것이라	-10805
다는걸	-10806
서비스	-10807
이지요	-10808
하기도	-10809
cuss	-10810
eter	-10811
rors	-10812
sets	-10813
yles	-10814
▁New	-10815
▁Not	-10816
▁Par	-10817
▁era	-10818
▁감시와	-10819
▁개혁을	-10820
▁것인지	-10821
▁계약직	-10822
▁관심이	-10823
▁기술은	-10824
▁다음과	-10825
▁당하는	-10826
▁돌아가	-10827
▁됩니까	-10828
▁바르게	-10829
▁발전이	-10830
▁방식은	-10831
▁브랜드	-10832
▁사전에	-10833
▁상당히	-10834
▁상대로	-10835
▁세월호	-10836
▁소리를	-10837
▁소식을	-10838
▁않을까	-10839
▁양육을	-10840
▁여론을	-10841
▁의무는	-10842
▁이것이	-10843
▁이라고	-10844
▁있어도	-10845
▁있었던	-10846
▁자기가	-10847
▁정도가	-10848
▁제안을	-10849
▁조치로	-10850
▁질환을	-10851
▁특별한	-10852
▁해야할	-10853
▁행복한	-10854
▁향상을	-10855
▁확실한	-10856
▁활용할	-10857
건강보험	-10858
해집니다	-10859
!!!!!	-10860
idden	-10861
ucted	-10862
▁coal	-10863
▁indo	-10864
▁port	-10865
▁shop	-10866
▁trip	-10867
▁가해자와	-10868
▁거주하고	-10869
▁그렇다면	-10870
▁금지하는	-10871
▁단기적인	-10872
▁부모님의	-10873
▁심화시켜	-10874
▁악용되는	-10875
▁않는다고	-10876
▁일으키는	-10877
▁정부지원	-10878
▁존중하기	-10879
▁줄이거나	-10880
▁착취하는	-10881
▁축소시켜	-10882
▁침해하고	-10883
▁확보하여	-10884
ashing	-10885
morrow	-10886
▁actor	-10887
▁fixed	-10888
▁inval	-10889
▁lines	-10890
▁liter	-10891
▁rapid	-10892
▁stuck	-10893
▁가해자에게	-10894
▁마련되어야	-10895
▁방지보다는	-10896
▁음주운전의	-10897
▁정신적으로	-10898
▁피해자들의	-10899
폐지해주세요	-10900
▁dreams	-10901
▁implic	-10902
▁powers	-10903
▁shared	-10904
▁가해자들에게	-10905
▁compare	-10906
▁counsel	-10907
▁murders	-10908
▁perhaps	-10909
▁여중생폭행사건	-10910
▁abnormal	-10911
▁compared	-10912
▁deducted	-10913
▁engaging	-10914
▁favorite	-10915
▁tomorrow	-10916
▁correctly	-10917
▁followers	-10918
▁everywhere	-10919
▁scientists	-10920
▁eliminating	-10921
NG	-10922
▁꼴	-10923
▁워	-10924
검사	-10925
따라	-10926
러도	-10927
림픽	-10928
바로	-10929
비리	-10930
상이	-10931
서에	-10932
싶은	-10933
요양	-10934
요즘	-10935
이니	-10936
일로	-10937
일비	-10938
장과	-10939
조직	-10940
통을	-10941
학대	-10942
해지	-10943
CTV	-10944
ips	-10945
off	-10946
ows	-10947
ume	-10948
ums	-10949
xic	-10950
▁Pr	-10951
▁['	-10952
▁거짓	-10953
▁군부	-10954
▁끊게	-10955
▁누릴	-10956
▁단절	-10957
▁말은	-10958
▁바쁘	-10959
▁배경	-10960
▁번호	-10961
▁벌써	-10962
▁사과	-10963
▁상징	-10964
▁수고	-10965
▁신호	-10966
▁양립	-10967
▁예를	-10968
▁외에	-10969
▁원치	-10970
▁위치	-10971
▁응원	-10972
▁인물	-10973
▁일에	-10974
▁작업	-10975
▁차지	-10976
▁처형	-10977
▁충성	-10978
▁화물	-10979
까지도	-10980
때부터	-10981
멤버스	-10982
반드시	-10983
사회의	-10984
었지만	-10985
으면서	-10986
정으로	-10987
폭력을	-10988
cipl	-10989
outh	-10990
▁THE	-10991
▁arr	-10992
▁bes	-10993
▁lat	-10994
▁yog	-10995
▁가정과	-10996
▁가정을	-10997
▁게다가	-10998
▁결정을	-10999
▁경우는	-11000
▁교화를	-11001
▁기여가	-11002
▁대화와	-11003
▁두려움	-11004
▁맞추는	-11005
▁미국의	-11006
▁발전과	-11007
▁방식이	-11008
▁범죄로	-11009
▁북한은	-11010
▁생각에	-11011
▁식용은	-11012
▁악용할	-11013
▁어긋나	-11014
▁어른과	-11015
▁언론의	-11016
▁엄벌에	-11017
▁없애는	-11018
▁연령이	-11019
▁울타리	-11020
▁윤리에	-11021
▁의도는	-11022
▁의문을	-11023
▁인해서	-11024
▁임원의	-11025
▁입장을	-11026
▁있기에	-11027
▁절대로	-11028
▁정부와	-11029
▁지방의	-11030
▁최근에	-11031
▁취약한	-11032
▁특수한	-11033
▁편집이	-11034
▁평화적	-11035
▁행동은	-11036
▁행위는	-11037
▁활용이	-11038
자들에게	-11039
해주시기	-11040
agers	-11041
archy	-11042
inner	-11043
itary	-11044
orbit	-11045
▁eyes	-11046
▁phil	-11047
▁scen	-11048
▁tick	-11049
▁가명이나	-11050
▁국가대표	-11051
▁국민연금	-11052
▁규제하는	-11053
▁독창성과	-11054
▁마련하는	-11055
▁만들어서	-11056
▁무관하게	-11057
▁반사회적	-11058
▁발생하지	-11059
▁범죄자가	-11060
▁범죄자의	-11061
▁불균형을	-11062
▁불필요한	-11063
▁사건들을	-11064
▁사고율이	-11065
▁심해지고	-11066
▁완벽하게	-11067
▁자라나는	-11068
▁적폐청산	-11069
▁정상적인	-11070
▁정체성과	-11071
▁청와대에	-11072
▁평가하여	-11073
수있습니다	-11074
active	-11075
astrop	-11076
friend	-11077
icking	-11078
retion	-11079
▁agric	-11080
▁bible	-11081
▁irres	-11082
▁lgbtq	-11083
▁patri	-11084
▁reper	-11085
▁상명대학교	-11086
▁증진시킨다	-11087
▁찬성합니다	-11088
▁초래하므로	-11089
▁adhere	-11090
▁clergy	-11091
▁donors	-11092
▁entrap	-11093
▁harmed	-11094
▁hatred	-11095
▁libert	-11096
▁linked	-11097
▁narrow	-11098
▁payers	-11099
▁spouse	-11100
▁worthy	-11101
▁대통령님께서	-11102
▁소년법폐지를	-11103
▁지역주택조합	-11104
cussions	-11105
▁archaic	-11106
▁forever	-11107
▁injured	-11108
▁monitor	-11109
▁murdere	-11110
▁obvious	-11111
▁planets	-11112
▁thereby	-11113
▁balanced	-11114
▁building	-11115
▁harmless	-11116
▁horrific	-11117
▁ideology	-11118
▁included	-11119
▁jealousy	-11120
▁outright	-11121
▁planning	-11122
▁reported	-11123
▁superior	-11124
ologically	-11125
▁arbitrary	-11126
▁catastrop	-11127
▁consumers	-11128
▁countless	-11129
▁happiness	-11130
▁neglected	-11131
▁personnel	-11132
▁subjected	-11133
stitutional	-11134
▁casualties	-11135
▁congestion	-11136
▁discretion	-11137
▁homeschool	-11138
▁multiparty	-11139
▁profitable	-11140
▁resentment	-11141
▁substances	-11142
▁desperately	-11143
▁ineffective	-11144
▁necessarily	-11145
▁discriminate	-11146
▁participation	-11147
▁repercussions	-11148
af	-11149
▁덮	-11150
▁씨	-11151
감과	-11152
겁게	-11153
것에	-11154
구니	-11155
년생	-11156
담배	-11157
더러	-11158
되게	-11159
방안	-11160
분양	-11161
비용	-11162
사기	-11163
삼아	-11164
세여	-11165
연구	-11166
위는	-11167
이게	-11168
이하	-11169
재판	-11170
제에	-11171
지금	-11172
질의	-11173
촛불	-11174
하셨	-11175
erb	-11176
hil	-11177
lly	-11178
val	-11179
▁Cl	-11180
▁hy	-11181
▁강사	-11182
▁고위	-11183
▁고의	-11184
▁과목	-11185
▁다녀	-11186
▁달려	-11187
▁매번	-11188
▁명칭	-11189
▁몇몇	-11190
▁받기	-11191
▁분위	-11192
▁사명	-11193
▁생긴	-11194
▁수월	-11195
▁수집	-11196
▁아파	-11197
▁연봉	-11198
▁완전	-11199
▁위리	-11200
▁유공	-11201
▁일률	-11202
▁장난	-11203
▁제일	-11204
▁주시	-11205
▁지는	-11206
▁집배	-11207
▁초과	-11208
▁출발	-11209
▁크며	-11210
▁편안	-11211
▁할때	-11212
▁협상	-11213
기보다	-11214
까지는	-11215
께서는	-11216
보다도	-11217
시스템	-11218
일비재	-11219
치에셋	-11220
하다가	-11221
하여야	-11222
협회의	-11223
cket	-11224
ifor	-11225
▁hab	-11226
▁lad	-11227
▁lic	-11228
▁sil	-11229
▁경험이	-11230
▁광고가	-11231
▁그러면	-11232
▁근거는	-11233
▁길거리	-11234
▁다하는	-11235
▁도입이	-11236
▁또다시	-11237
▁말하는	-11238
▁모두에	-11239
▁반복된	-11240
▁법인지	-11241
▁보완을	-11242
▁보이는	-11243
▁복지에	-11244
▁분담을	-11245
▁분들의	-11246
▁비흡연	-11247
▁사건도	-11248
▁상태를	-11249
▁생기는	-11250
▁세대의	-11251
▁신속한	-11252
▁알고있	-11253
▁음주를	-11254
▁있을지	-11255
▁전국민	-11256
▁절차가	-11257
▁정도의	-11258
▁존재가	-11259
▁특성과	-11260
▁폭행은	-11261
▁행위가	-11262
▁향상과	-11263
▁현재는	-11264
▁형성을	-11265
▁혼잡을	-11266
국입니다	-11267
럽습니다	-11268
저지르고	-11269
하겠다고	-11270
iency	-11271
▁CCTV	-11272
▁coop	-11273
▁date	-11274
▁hair	-11275
▁trem	-11276
▁극소수의	-11277
▁기본권을	-11278
▁노출되어	-11279
▁보호하지	-11280
▁부담으로	-11281
▁부산에서	-11282
▁부정하지	-11283
▁비일비재	-11284
▁생각하지	-11285
▁세상에서	-11286
▁아이에게	-11287
▁약하다는	-11288
▁엄벌주의	-11289
▁연속성을	-11290
▁용인하는	-11291
▁위멤버스	-11292
▁이용자의	-11293
▁일이라고	-11294
▁일이지만	-11295
▁일자리가	-11296
▁적용하면	-11297
▁전환되어	-11298
▁지었으면	-11299
▁추진하고	-11300
▁축산업은	-11301
▁페미니즘	-11302
▁필요성은	-11303
▁핵폐기물	-11304
▁형성되어	-11305
▁확보하고	-11306
elling	-11307
iction	-11308
▁added	-11309
▁asked	-11310
▁asset	-11311
▁brand	-11312
▁built	-11313
▁proud	-11314
▁wages	-11315
▁wides	-11316
▁단계적으로	-11317
▁바꿔주세요	-11318
▁부족합니다	-11319
▁사실입니다	-11320
▁위리치에셋	-11321
▁asking	-11322
▁expert	-11323
▁nearly	-11324
▁pocket	-11325
▁sector	-11326
▁stream	-11327
▁제한함으로써	-11328
........	-11329
▁arrange	-11330
▁discipl	-11331
▁machine	-11332
▁missing	-11333
▁passion	-11334
▁portion	-11335
▁priorit	-11336
▁sharing	-11337
▁telling	-11338
▁형사처벌보다는	-11339
▁audience	-11340
▁emotions	-11341
▁greatest	-11342
▁instance	-11343
▁location	-11344
▁paycheck	-11345
▁priority	-11346
▁separate	-11347
▁wherever	-11348
▁attending	-11349
▁recommend	-11350
▁continuing	-11351
▁advertising	-11352
▁introducing	-11353
▁institutional	-11354
▁꼬	-11355
▁앉	-11356
▁옮	-11357
▁옹	-11358
▁잣	-11359
▁좁	-11360
겠다	-11361
급여	-11362
급한	-11363
기능	-11364
기지	-11365
돌림	-11366
라리	-11367
러운	-11368
르바	-11369
만의	-11370
번째	-11371
분에	-11372
소의	-11373
수급	-11374
수와	-11375
식의	-11376
신고	-11377
쓰고	-11378
여러	-11379
요일	-11380
이번	-11381
이야	-11382
일으	-11383
자들	-11384
전을	-11385
정과	-11386
중앙	-11387
차로	-11388
학습	-11389
함은	-11390
화된	-11391
gry	-11392
hes	-11393
▁간단	-11394
▁감안	-11395
▁과학	-11396
▁교과	-11397
▁깊은	-11398
▁꾸준	-11399
▁느꼈	-11400
▁다닐	-11401
▁대입	-11402
▁묵인	-11403
▁보통	-11404
▁부재	-11405
▁부처	-11406
▁비영	-11407
▁뿌리	-11408
▁상응	-11409
▁생성	-11410
▁실업	-11411
▁악순	-11412
▁원래	-11413
▁유예	-11414
▁잃을	-11415
▁자금	-11416
▁자발	-11417
▁죄송	-11418
▁집을	-11419
▁짧은	-11420
▁첫걸	-11421
▁파악	-11422
▁확장	-11423
개정을	-11424
사건이	-11425
스포츠	-11426
이스북	-11427
장애인	-11428
정서적	-11429
층으로	-11430
큽니다	-11431
하기에	-11432
해지면	-11433
back	-11434
educ	-11435
viol	-11436
▁fel	-11437
▁vac	-11438
▁감독이	-11439
▁겁니까	-11440
▁기존의	-11441
▁높아질	-11442
▁데에는	-11443
▁떨어질	-11444
▁보호의	-11445
▁복귀할	-11446
▁부담과	-11447
▁북한에	-11448
▁불공평	-11449
▁불안한	-11450
▁사회는	-11451
▁사회로	-11452
▁성매매	-11453
▁수사의	-11454
▁시기가	-11455
▁시험을	-11456
▁어긋날	-11457
▁여부에	-11458
▁완전한	-11459
▁유사한	-11460
▁유지를	-11461
▁유포를	-11462
▁의미를	-11463
▁전술핵	-11464
▁정신병	-11465
▁정의는	-11466
▁조건을	-11467
▁축소를	-11468
▁치유를	-11469
▁하시는	-11470
▁해답은	-11471
▁힘들고	-11472
더라구요	-11473
르바이트	-11474
안됩니다	-11475
어리다는	-11476
하기에는	-11477
alate	-11478
ipped	-11479
lated	-11480
▁HWPL	-11481
▁dece	-11482
▁degr	-11483
▁peer	-11484
▁ramp	-11485
▁unbi	-11486
▁unex	-11487
▁공정성에	-11488
▁되어서는	-11489
▁명목하에	-11490
▁민주성과	-11491
▁반복적인	-11492
▁방지하는	-11493
▁범죄들이	-11494
▁보상이며	-11495
▁보호받고	-11496
▁본인들이	-11497
▁봤습니다	-11498
▁생각하니	-11499
▁이름으로	-11500
▁접근으로	-11501
▁접근이다	-11502
▁정규직화	-11503
▁조성하는	-11504
▁지원하기	-11505
▁청년들의	-11506
▁초래하여	-11507
▁회복하는	-11508
▁훼손되어	-11509
forces	-11510
lusion	-11511
▁Space	-11512
▁abort	-11513
▁fails	-11514
▁inacc	-11515
▁lifel	-11516
▁react	-11517
▁recre	-11518
▁sound	-11519
▁taxed	-11520
▁twice	-11521
▁zones	-11522
▁가짜뉴스를	-11523
▁대한민국에	-11524
▁마찬가지로	-11525
▁문대통령님	-11526
▁반응입니다	-11527
▁부탁드려요	-11528
▁사건입니다	-11529
▁수월해진다	-11530
▁스트레스가	-11531
▁시점입니다	-11532
▁어린이집의	-11533
▁이루어지는	-11534
▁있겠습니까	-11535
▁절실합니다	-11536
▁정보로부터	-11537
▁청소년보호	-11538
ainable	-11539
gusting	-11540
ifornia	-11541
▁Create	-11542
▁decent	-11543
▁eradic	-11544
▁failed	-11545
▁ideals	-11546
▁ignore	-11547
▁instru	-11548
▁orders	-11549
▁overse	-11550
▁plants	-11551
▁propag	-11552
▁repair	-11553
▁ruling	-11554
▁tactic	-11555
▁unknow	-11556
▁upheld	-11557
▁문재인대통령	-11558
▁보호법이라는	-11559
▁저지르더라도	-11560
▁청소년법으로	-11561
inations	-11562
▁ancient	-11563
▁closing	-11564
▁conduct	-11565
▁hunting	-11566
▁inmates	-11567
▁isolate	-11568
▁maximum	-11569
▁radical	-11570
▁recover	-11571
▁rulings	-11572
▁skilled	-11573
▁smoking	-11574
▁talents	-11575
▁tremend	-11576
▁underst	-11577
▁가정어린이집에	-11578
roductive	-11579
▁agricult	-11580
▁catching	-11581
▁document	-11582
▁firearms	-11583
▁inferior	-11584
▁legalise	-11585
▁monetary	-11586
▁severely	-11587
▁treating	-11588
▁unjustly	-11589
▁weakness	-11590
▁classroom	-11591
▁disorders	-11592
▁fundament	-11593
▁commercial	-11594
▁curriculum	-11595
▁disgusting	-11596
▁inaccurate	-11597
▁authorities	-11598
▁consumption	-11599
▁convictions	-11600
▁perpetrator	-11601
▁requirement	-11602
▁distractions	-11603
▁homeschooled	-11604
▁unemployment	-11605
.,	-11606
ED	-11607
ox	-11608
▁•	-11609
▁까	-11610
▁끌	-11611
▁쓴	-11612
▁짜	-11613
격을	-11614
국의	-11615
나게	-11616
나지	-11617
냄새	-11618
다시	-11619
동의	-11620
벌을	-11621
부에	-11622
세가	-11623
시장	-11624
약을	-11625
어가	-11626
유아	-11627
을까	-11628
이건	-11629
정당	-11630
제의	-11631
조의	-11632
통합	-11633
퇴근	-11634
하되	-11635
bac	-11636
roc	-11637
▁Ar	-11638
▁개념	-11639
▁경영	-11640
▁공권	-11641
▁과천	-11642
▁그건	-11643
▁길로	-11644
▁김해	-11645
▁누리	-11646
▁대전	-11647
▁더큰	-11648
▁비합	-11649
▁술을	-11650
▁심어	-11651
▁앞에	-11652
▁영화	-11653
▁온갖	-11654
▁원아	-11655
▁이혼	-11656
▁자극	-11657
▁적게	-11658
▁중시	-11659
▁촛불	-11660
▁키워	-11661
▁프라	-11662
▁프로	-11663
▁해가	-11664
▁형식	-11665
▁형편	-11666
▁후속	-11667
▁희귀	-11668
기위해	-11669
사람이	-11670
으로만	-11671
진다면	-11672
하고도	-11673
anks	-11674
avig	-11675
land	-11676
▁Min	-11677
▁ann	-11678
▁ceo	-11679
▁mid	-11680
▁pet	-11681
▁고용을	-11682
▁공간의	-11683
▁공평한	-11684
▁구조가	-11685
▁그래야	-11686
▁극단적	-11687
▁낭비를	-11688
▁논의와	-11689
▁능사는	-11690
▁다해야	-11691
▁대해선	-11692
▁마련된	-11693
▁많은데	-11694
▁말씀을	-11695
▁모습이	-11696
▁미래는	-11697
▁미친다	-11698
▁반복될	-11699
▁발암물	-11700
▁범죄도	-11701
▁보기는	-11702
▁사실이	-11703
▁수요를	-11704
▁의사결	-11705
▁정권의	-11706
▁정부에	-11707
▁제한된	-11708
▁줄이면	-11709
▁지어도	-11710
▁처리와	-11711
▁취지가	-11712
▁하고자	-11713
▁하나로	-11714
▁하나요	-11715
▁학생은	-11716
▁해주는	-11717
청소년법	-11718
anish	-11719
aving	-11720
oning	-11721
pread	-11722
works	-11723
▁drop	-11724
▁foot	-11725
▁subs	-11726
▁yoga	-11727
▁감소하여	-11728
▁고통받는	-11729
▁기여하고	-11730
▁기회조차	-11731
▁나쁜짓을	-11732
▁넘어가지	-11733
▁노력하고	-11734
▁높습니다	-11735
▁더이상의	-11736
▁분담해야	-11737
▁사생활과	-11738
▁아십니까	-11739
▁엄중함을	-11740
▁인건비를	-11741
▁인상으로	-11742
▁잘못에서	-11743
▁정당성을	-11744
▁조장하는	-11745
리기보다는	-11746
velope	-11747
▁Organ	-11748
▁compl	-11749
▁crazy	-11750
▁fraud	-11751
▁match	-11752
▁교사입니다	-11753
▁범죄입니다	-11754
▁보호법폐지	-11755
▁아르바이트	-11756
▁일방적으로	-11757
▁자연스럽게	-11758
▁저질렀다고	-11759
▁청소년법의	-11760
entence	-11761
▁former	-11762
▁habits	-11763
▁medium	-11764
▁underp	-11765
▁위험으로부터	-11766
▁폭행사건으로	-11767
▁charged	-11768
▁charges	-11769
▁crashes	-11770
▁lessons	-11771
▁privacy	-11772
▁respond	-11773
▁solving	-11774
▁concepts	-11775
▁entering	-11776
▁neighbor	-11777
▁presence	-11778
▁produced	-11779
▁vehicles	-11780
▁agreement	-11781
▁exploring	-11782
▁fortunate	-11783
▁investors	-11784
▁principle	-11785
▁separated	-11786
▁tolerance	-11787
▁worldwide	-11788
▁consistent	-11789
▁definition	-11790
▁facilities	-11791
▁maintained	-11792
▁widespread	-11793
▁sustainable	-11794
AN	-11795
LD	-11796
▁는	-11797
▁뭘	-11798
▁밖	-11799
계에	-11800
고요	-11801
곳이	-11802
나가	-11803
나면	-11804
도덕	-11805
동에	-11806
들고	-11807
리아	-11808
말이	-11809
발생	-11810
버린	-11811
법에	-11812
서의	-11813
선택	-11814
소한	-11815
시급	-11816
이프	-11817
자면	-11818
저질	-11819
주를	-11820
카드	-11821
통이	-11822
환이	-11823
휴가	-11824
ctr	-11825
umb	-11826
▁TO	-11827
▁Tr	-11828
▁검출	-11829
▁공모	-11830
▁관광	-11831
▁국세	-11832
▁나왔	-11833
▁대대	-11834
▁대폭	-11835
▁둘째	-11836
▁모방	-11837
▁미수	-11838
▁미약	-11839
▁반발	-11840
▁볼수	-11841
▁뻔뻔	-11842
▁사육	-11843
▁사전	-11844
▁새벽	-11845
▁소녀	-11846
▁수립	-11847
▁수십	-11848
▁시정	-11849
▁어처	-11850
▁없었	-11851
▁영역	-11852
▁원전	-11853
▁이래	-11854
▁이지	-11855
▁자산	-11856
▁작품	-11857
▁전공	-11858
▁전화	-11859
▁점진	-11860
▁주부	-11861
▁출입	-11862
▁커플	-11863
▁품질	-11864
▁해석	-11865
▁후에	-11866
▁흘러	-11867
곳에서	-11868
교육을	-11869
달라고	-11870
때마다	-11871
애들이	-11872
위해서	-11873
유공자	-11874
하지도	-11875
born	-11876
chan	-11877
efin	-11878
hips	-11879
life	-11880
nder	-11881
onse	-11882
rend	-11883
▁Res	-11884
▁coc	-11885
▁jum	-11886
▁len	-11887
▁가족이	-11888
▁견제와	-11889
▁구체적	-11890
▁군부나	-11891
▁그것이	-11892
▁낙인찍	-11893
▁네이버	-11894
▁누구도	-11895
▁느끼고	-11896
▁대응할	-11897
▁도와야	-11898
▁되는데	-11899
▁많다고	-11900
▁명백한	-11901
▁모국어	-11902
▁방사성	-11903
▁배분을	-11904
▁보완해	-11905
▁부추겨	-11906
▁분배에	-11907
▁사기를	-11908
▁사람도	-11909
▁산업의	-11910
▁생각과	-11911
▁생각은	-11912
▁수사와	-11913
▁실현할	-11914
▁악이용	-11915
▁안전망	-11916
▁안전성	-11917
▁여기는	-11918
▁예비군	-11919
▁요인이	-11920
▁원인은	-11921
▁입니까	-11922
▁저희가	-11923
▁적절히	-11924
▁전반에	-11925
▁증가로	-11926
▁지적은	-11927
▁직장을	-11928
▁차라리	-11929
▁차별이	-11930
▁창작한	-11931
▁처벌뿐	-11932
▁축소는	-11933
▁출산율	-11934
▁투기를	-11935
▁판단이	-11936
▁협업이	-11937
▁형태의	-11938
▁활동이	-11939
초등학교	-11940
하는것이	-11941
dings	-11942
lying	-11943
▁ball	-11944
▁gift	-11945
▁guys	-11946
▁hunt	-11947
▁insp	-11948
▁intr	-11949
▁late	-11950
▁mand	-11951
▁pace	-11952
▁page	-11953
▁prec	-11954
▁pull	-11955
▁ruin	-11956
▁scar	-11957
▁skew	-11958
▁tail	-11959
▁took	-11960
▁whim	-11961
▁감소시킬	-11962
▁것보다는	-11963
▁것이라고	-11964
▁근로시간	-11965
▁나라답게	-11966
▁남깁니다	-11967
▁당당하게	-11968
▁모두에게	-11969
▁무자비한	-11970
▁보건복지	-11971
▁부적절한	-11972
▁불러일으	-11973
▁불안해서	-11974
▁생각하며	-11975
▁소년법과	-11976
▁소년법에	-11977
▁어처구니	-11978
▁억제하여	-11979
▁용인하기	-11980
▁유전병을	-11981
▁인간다운	-11982
▁일변도로	-11983
▁종합적인	-11984
▁증가시킬	-11985
▁추구해야	-11986
▁판단력과	-11987
▁폭력으로	-11988
▁프라이버	-11989
▁해결책일	-11990
어야합니다	-11991
요구합니다	-11992
해주셨으면	-11993
ceived	-11994
worthy	-11995
▁Great	-11996
▁arent	-11997
▁blood	-11998
▁fault	-11999
▁guilt	-12000
▁hence	-12001
▁indig	-12002
▁inher	-12003
▁navig	-12004
▁outwe	-12005
▁suffe	-12006
▁tough	-12007
▁unreg	-12008
▁가능하다는	-12009
▁강력범죄에	-12010
▁마땅하다고	-12011
▁부탁합니다	-12012
▁여중생사건	-12013
▁우리나라도	-12014
▁우선적으로	-12015
▁적용되어야	-12016
▁청소년법에	-12017
▁피해자들을	-12018
▁하나만으로	-12019
ificial	-12020
itation	-12021
itution	-12022
ocratic	-12023
unction	-12024
violent	-12025
▁Public	-12026
▁disfig	-12027
▁distur	-12028
▁entity	-12029
▁native	-12030
▁prolif	-12031
▁proved	-12032
▁sexist	-12033
▁강화하더라도	-12034
▁대한축구협회	-12035
▁비인도적이며	-12036
▁솜방망이처벌	-12037
▁중요하더라도	-12038
▁피해자입니다	-12039
cription	-12040
educated	-12041
orbitant	-12042
▁Journal	-12043
▁Spanish	-12044
▁adverse	-12045
▁aggress	-12046
▁amongst	-12047
▁besides	-12048
▁centers	-12049
▁coerced	-12050
▁cooking	-12051
▁denying	-12052
▁embrace	-12053
▁empower	-12054
▁hacking	-12055
▁husband	-12056
▁indoctr	-12057
▁minimal	-12058
▁quicker	-12059
▁reconst	-12060
▁suggest	-12061
cessarily	-12062
▁actively	-12063
▁approved	-12064
▁churches	-12065
▁distress	-12066
▁exchange	-12067
▁executed	-12068
▁invested	-12069
▁measures	-12070
▁mutually	-12071
▁populace	-12072
▁someones	-12073
▁supplies	-12074
▁unbiased	-12075
▁behaviour	-12076
▁customers	-12077
▁defendant	-12078
▁hospitals	-12079
▁insurance	-12080
▁paragraph	-12081
▁pregnancy	-12082
▁compassion	-12083
▁discipline	-12084
▁ecosystems	-12085
▁meaningful	-12086
▁reputation	-12087
▁traditions	-12088
▁viewpoints	-12089
▁functioning	-12090
▁unregulated	-12091
▁catastrophic	-12092
▁economically	-12093
▁requirements	-12094
▁individualism	-12095
▁unnecessarily	-12096
bc	-12097
do	-12098
▁레	-12099
▁뭔	-12100
것같	-12101
겠지	-12102
경쟁	-12103
구현	-12104
기만	-12105
끼리	-12106
년의	-12107
놓은	-12108
대출	-12109
더욱	-12110
도에	-12111
등등	-12112
만에	-12113
미한	-12114
별로	-12115
봐도	-12116
서와	-12117
소가	-12118
수료	-12119
순간	-12120
시술	-12121
식과	-12122
오고	-12123
우리	-12124
위의	-12125
음에	-12126
의로	-12127
인것	-12128
자식	-12129
채용	-12130
책을	-12131
프고	-12132
현백	-12133
amb	-12134
els	-12135
rif	-12136
vey	-12137
▁LH	-12138
▁가까	-12139
▁겨우	-12140
▁기타	-12141
▁긴장	-12142
▁나영	-12143
▁다수	-12144
▁막막	-12145
▁모를	-12146
▁모집	-12147
▁물어	-12148
▁밝은	-12149
▁봐야	-12150
▁부대	-12151
▁사후	-12152
▁상해	-12153
▁선정	-12154
▁세무	-12155
▁실태	-12156
▁아마	-12157
▁오른	-12158
▁오해	-12159
▁응급	-12160
▁이렇	-12161
▁재원	-12162
▁전파	-12163
▁조용	-12164
▁조항	-12165
▁주관	-12166
▁직면	-12167
▁짐승	-12168
▁집권	-12169
▁천연	-12170
▁철거	-12171
▁택배	-12172
▁풍요	-12173
▁하던	-12174
▁한명	-12175
▁핵을	-12176
교사를	-12177
되도록	-12178
들과의	-12179
력으로	-12180
만원을	-12181
사이트	-12182
실에서	-12183
이나마	-12184
일어나	-12185
하는거	-12186
했으며	-12187
휴일이	-12188
ello	-12189
iest	-12190
kers	-12191
raid	-12192
ront	-12193
whel	-12194
▁gri	-12195
▁hop	-12196
▁oil	-12197
▁pim	-12198
▁ric	-12199
▁tut	-12200
▁감형을	-12201
▁강도가	-12202
▁경찰관	-12203
▁고통에	-12204
▁관계자	-12205
▁구조에	-12206
▁구조의	-12207
▁극대화	-12208
▁나이와	-12209
▁노력이	-12210
▁대가를	-12211
▁동물을	-12212
▁동성애	-12213
▁따돌림	-12214
▁만들며	-12215
▁보급을	-12216
▁본질적	-12217
▁불공정	-12218
▁비율이	-12219
▁빼앗는	-12220
▁살아온	-12221
▁시기에	-12222
▁악랄한	-12223
▁엄벌로	-12224
▁없으면	-12225
▁오염과	-12226
▁올리게	-12227
▁운영과	-12228
▁인식이	-12229
▁일어났	-12230
▁있나요	-12231
▁자식이	-12232
▁자유만	-12233
▁재개는	-12234
▁전략적	-12235
▁정권이	-12236
▁정현백	-12237
▁죗값을	-12238
▁집에서	-12239
▁커지고	-12240
▁키울수	-12241
▁하여야	-12242
▁학교와	-12243
▁해소와	-12244
▁해체를	-12245
▁해치며	-12246
거같아요	-12247
bacco	-12248
edent	-12249
icing	-12250
▁Once	-12251
▁exac	-12252
▁gang	-12253
▁half	-12254
▁suit	-12255
▁vers	-12256
▁가능성도	-12257
▁그렇다고	-12258
▁극악무도	-12259
▁남녀평등	-12260
▁높아진다	-12261
▁대응하지	-12262
▁문제이며	-12263
▁믿습니다	-12264
▁보호장치	-12265
▁상응하는	-12266
▁생각으로	-12267
▁스마트폰	-12268
▁실효성이	-12269
▁아니므로	-12270
▁어른들의	-12271
▁인지하고	-12272
▁일률적인	-12273
▁조치이며	-12274
▁증가하고	-12275
▁평가하는	-12276
▁포함되어	-12277
▁확실하게	-12278
부산여중생	-12279
이었습니다	-12280
pected	-12281
▁Other	-12282
▁below	-12283
▁cells	-12284
▁divid	-12285
▁effic	-12286
▁unity	-12287
▁끔찍합니다	-12288
▁위함입니다	-12289
▁일환입니다	-12290
▁정책입니다	-12291
▁청소년기는	-12292
▁폐지하거나	-12293
▁화가납니다	-12294
natives	-12295
unately	-12296
▁advice	-12297
▁afraid	-12298
▁bought	-12299
▁breaks	-12300
▁center	-12301
▁dinner	-12302
▁losses	-12303
▁scores	-12304
▁struct	-12305
▁temper	-12306
▁volunt	-12307
▁사립유치원의	-12308
▁엄벌만으로는	-12309
▁article	-12310
▁heavily	-12311
▁pension	-12312
▁tobacco	-12313
▁보육교사입니다	-12314
▁Sentence	-12315
▁constant	-12316
▁deciding	-12317
▁expected	-12318
▁generous	-12319
▁overwhel	-12320
▁vacation	-12321
▁awareness	-12322
▁childrens	-12323
▁governing	-12324
▁radiation	-12325
▁afterwards	-12326
▁algorithms	-12327
▁controvers	-12328
▁discourage	-12329
▁guarantees	-12330
▁incentives	-12331
▁invaluable	-12332
▁accountable	-12333
.(	-12334
na	-12335
yn	-12336
▁갚	-12337
▁년	-12338
▁맨	-12339
▁쪽	-12340
거래	-12341
그런	-12342
까봐	-12343
다며	-12344
따른	-12345
때가	-12346
뜨고	-12347
로를	-12348
링크	-12349
미래	-12350
받게	-12351
받지	-12352
병원	-12353
분의	-12354
사무	-12355
세금	-12356
세대	-12357
수사	-12358
신이	-12359
심의	-12360
심이	-12361
죄가	-12362
지로	-12363
참히	-12364
청에	-12365
층의	-12366
치면	-12367
친구	-12368
특별	-12369
하실	-12370
행사	-12371
The	-12372
has	-12373
~~~	-12374
▁!!	-12375
▁BE	-12376
▁Pl	-12377
▁가끔	-12378
▁강서	-12379
▁경비	-12380
▁구사	-12381
▁구타	-12382
▁국토	-12383
▁대구	-12384
▁대두	-12385
▁될지	-12386
▁두둔	-12387
▁따로	-12388
▁리터	-12389
▁말로	-12390
▁면접	-12391
▁모아	-12392
▁묻고	-12393
▁보일	-12394
▁복합	-12395
▁불량	-12396
▁빨라	-12397
▁삼성	-12398
▁소리	-12399
▁신태	-12400
▁악한	-12401
▁야근	-12402
▁약물	-12403
▁업주	-12404
▁옹호	-12405
▁용이	-12406
▁우울	-12407
▁유형	-12408
▁이르	-12409
▁이윤	-12410
▁잊지	-12411
▁자수	-12412
▁재학	-12413
▁조심	-12414
▁좋지	-12415
▁주로	-12416
▁주말	-12417
▁준수	-12418
▁중독	-12419
▁집안	-12420
▁초기	-12421
▁치매	-12422
▁탄력	-12423
▁한마	-12424
▁한약	-12425
▁협조	-12426
▁혹시	-12427
▁흔들	-12428
나이에	-12429
분들은	-12430
시간이	-12431
일수록	-12432
제도는	-12433
졌으면	-12434
폭행이	-12435
하고있	-12436
하는건	-12437
할수도	-12438
ager	-12439
dden	-12440
enez	-12441
inct	-12442
lets	-12443
look	-12444
rage	-12445
uela	-12446
uine	-12447
▁bom	-12448
▁guy	-12449
▁mem	-12450
▁sav	-12451
▁saw	-12452
▁sig	-12453
▁개발이	-12454
▁개입을	-12455
▁경제에	-12456
▁국민과	-12457
▁국세청	-12458
▁근절이	-12459
▁논의를	-12460
▁능력은	-12461
▁대화의	-12462
▁도구로	-12463
▁도모할	-12464
▁말로만	-12465
▁명예를	-12466
▁반하는	-12467
▁배경을	-12468
▁범행을	-12469
▁복무를	-12470
▁부담만	-12471
▁부산사	-12472
▁부산에	-12473
▁사법의	-12474
▁사실은	-12475
▁생계를	-12476
▁서민과	-12477
▁소년원	-12478
▁습관과	-12479
▁시도가	-12480
▁시절의	-12481
▁씁니다	-12482
▁아동의	-12483
▁안보에	-12484
▁운영은	-12485
▁이해해	-12486
▁임금을	-12487
▁임산부	-12488
▁잘못도	-12489
▁잘못한	-12490
▁장치로	-12491
▁정교사	-12492
▁제고와	-12493
▁조성할	-12494
▁죄질이	-12495
▁증가는	-12496
▁치밀어	-12497
▁카테고	-12498
▁평가할	-12499
▁폐기물	-12500
▁필요는	-12501
▁하고도	-12502
▁합시다	-12503
▁했다는	-12504
▁했으면	-12505
▁행위로	-12506
▁활용을	-12507
▁효율을	-12508
되었으면	-12509
랐습니다	-12510
입장에서	-12511
저질러도	-12512
antic	-12513
enous	-12514
ester	-12515
ivist	-12516
overy	-12517
▁core	-12518
▁dram	-12519
▁enab	-12520
▁gone	-12521
▁inev	-12522
▁infe	-12523
▁runs	-12524
▁vows	-12525
▁감정적인	-12526
▁걱정하는	-12527
▁고통받고	-12528
▁구사력을	-12529
▁군복무는	-12530
▁군복무를	-12531
▁기여하는	-12532
▁기여하여	-12533
▁남성에게	-12534
▁다시한번	-12535
▁대해서도	-12536
▁되더라도	-12537
▁리터러시	-12538
▁말입니다	-12539
▁못하도록	-12540
▁무서움을	-12541
▁무책임한	-12542
▁문제지만	-12543
▁방지하여	-12544
▁병행하는	-12545
▁불안정을	-12546
▁불합리한	-12547
▁사건처럼	-12548
▁성인들이	-12549
▁성인처럼	-12550
▁수준으로	-12551
▁써주세요	-12552
▁앞으로도	-12553
▁요구하며	-12554
▁유가족의	-12555
▁이야기를	-12556
▁장려하여	-12557
▁전가되어	-12558
▁제품으로	-12559
▁탐색하고	-12560
▁해결보다	-12561
▁향상으로	-12562
▁횟수제한	-12563
▁효율적인	-12564
▁훼손하는	-12565
ateral	-12566
rative	-12567
▁Hello	-12568
▁Prost	-12569
▁altog	-12570
▁awful	-12571
▁bonds	-12572
▁cohes	-12573
▁cross	-12574
▁depri	-12575
▁equip	-12576
▁guard	-12577
▁imper	-12578
▁incap	-12579
▁optim	-12580
▁petty	-12581
▁pries	-12582
▁spous	-12583
▁teens	-12584
▁toxic	-12585
▁tried	-12586
▁unlaw	-12587
▁감정적으로	-12588
▁강력범죄를	-12589
▁내려주세요	-12590
▁많으십니다	-12591
▁말씀드리고	-12592
▁무기계약직	-12593
▁민주주의를	-12594
▁세상입니다	-12595
▁아이키우는	-12596
▁운영되어야	-12597
▁이해되지만	-12598
▁저해하므로	-12599
▁제안합니다	-12600
▁중요하다고	-12601
▁최저임금이	-12602
▁폐지합시다	-12603
llowing	-12604
▁Minors	-12605
▁armies	-12606
▁denies	-12607
▁emphas	-12608
▁fought	-12609
▁gotten	-12610
▁looked	-12611
▁mechan	-12612
▁member	-12613
▁middle	-12614
▁persec	-12615
▁smooth	-12616
▁sports	-12617
▁starts	-12618
▁suited	-12619
▁treats	-12620
▁unfort	-12621
▁wasted	-12622
▁고려하더라도	-12623
▁금지만으로는	-12624
▁되어야합니다	-12625
▁심화시키므로	-12626
▁우리나라에서	-12627
▁제한만으로는	-12628
????????	-12629
enezuela	-12630
▁bonding	-12631
▁bonuses	-12632
▁damages	-12633
▁decides	-12634
▁demands	-12635
▁endless	-12636
▁genuine	-12637
▁hostile	-12638
▁incomes	-12639
▁legitim	-12640
▁picture	-12641
▁proceed	-12642
▁profile	-12643
▁protest	-12644
▁showing	-12645
▁walking	-12646
▁welcome	-12647
▁wrongly	-12648
▁처벌해야합니다	-12649
▁arrested	-12650
▁customer	-12651
▁entirely	-12652
▁flourish	-12653
▁maximize	-12654
▁occasion	-12655
▁outweigh	-12656
▁overcome	-12657
▁released	-12658
▁response	-12659
▁schooled	-12660
▁shortage	-12661
▁socially	-12662
▁stealing	-12663
▁surround	-12664
▁taxpayer	-12665
▁belonging	-12666
▁direction	-12667
▁economics	-12668
▁exercises	-12669
▁invention	-12670
▁literally	-12671
▁placement	-12672
▁pressures	-12673
▁prevented	-12674
▁processes	-12675
▁sexuality	-12676
▁altogether	-12677
▁artificial	-12678
▁compromise	-12679
▁inadequate	-12680
▁indigenous	-12681
▁inventions	-12682
▁previously	-12683
▁priesthood	-12684
▁privileged	-12685
▁supervised	-12686
▁surrogates	-12687
▁violations	-12688
▁countryside	-12689
▁legislation	-12690
▁problematic	-12691
▁punishments	-12692
▁restaurants	-12693
▁underground	-12694
▁consistently	-12695
▁disadvantage	-12696
▁recreational	-12697
▁fundamentally	-12698
▁participating	-12699
▁overpopulation	-12700
']	-12701
ER	-12702
nd	-12703
oh	-12704
sh	-12705
▁냉	-12706
▁셋	-12707
▁쉴	-12708
▁엉	-12709
▁핑	-12710
가에	-12711
그래	-12712
님이	-12713
되요	-12714
두는	-12715
등이	-12716
때는	-12717
사이	-12718
선의	-12719
워크	-12720
의무	-12721
잠수	-12722
재를	-12723
준비	-12724
초에	-12725
판매	-12726
한지	-12727
할지	-12728
현재	-12729
화로	-12730
ior	-12731
izz	-12732
maz	-12733
orn	-12734
reh	-12735
▁Ke	-12736
▁Qu	-12737
▁SK	-12738
▁각각	-12739
▁겁이	-12740
▁공존	-12741
▁과외	-12742
▁과잉	-12743
▁나머	-12744
▁내실	-12745
▁느낀	-12746
▁니다	-12747
▁동네	-12748
▁두는	-12749
▁뛰어	-12750
▁못지	-12751
▁발견	-12752
▁보게	-12753
▁분류	-12754
▁분리	-12755
▁비핵	-12756
▁사상	-12757
▁상실	-12758
▁생물	-12759
▁수학	-12760
▁시공	-12761
▁시끄	-12762
▁실망	-12763
▁실험	-12764
▁아웃	-12765
▁알거	-12766
▁앞서	-12767
▁원룸	-12768
▁응징	-12769
▁있죠	-12770
▁중증	-12771
▁참담	-12772
▁치우	-12773
▁퍼뜨	-12774
▁피의	-12775
▁해를	-12776
▁현역	-12777
▁현직	-12778
▁형을	-12779
▁횡포	-12780
▁휴업	-12781
경찰서	-12782
기전에	-12783
년부터	-12784
되면서	-12785
분들의	-12786
사회가	-12787
신다면	-12788
아이는	-12789
중학교	-12790
하다면	-12791
할까요	-12792
athy	-12793
gers	-12794
irty	-12795
ruit	-12796
ster	-12797
▁Com	-12798
▁Sex	-12799
▁Spe	-12800
▁ago	-12801
▁arg	-12802
▁갈등과	-12803
▁경찰에	-12804
▁경찰은	-12805
▁고통은	-12806
▁공백을	-12807
▁관행이	-12808
▁교정의	-12809
▁나라로	-12810
▁나라에	-12811
▁남녀가	-12812
▁넘어서	-12813
▁대비할	-12814
▁대응을	-12815
▁더더욱	-12816
▁되어도	-12817
▁드리고	-12818
▁복무는	-12819
▁비현실	-12820
▁상태가	-12821
▁소통이	-12822
▁수익을	-12823
▁아기를	-12824
▁않아서	-12825
▁역행할	-12826
▁열악한	-12827
▁운용에	-12828
▁인상이	-12829
▁인재를	-12830
▁일들을	-12831
▁자원이	-12832
▁재건축	-12833
▁정말로	-12834
▁준다는	-12835
▁지향에	-12836
▁큽니다	-12837
▁투명성	-12838
▁편의점	-12839
▁학교의	-12840
▁한국이	-12841
▁합의가	-12842
▁해결될	-12843
▁했다고	-12844
▁형태로	-12845
중입니다	-12846
할수있는	-12847
해주시길	-12848
esome	-12849
matic	-12850
▁Amaz	-12851
▁Comp	-12852
▁Tell	-12853
▁army	-12854
▁cogn	-12855
▁hasn	-12856
▁pays	-12857
▁wind	-12858
▁간과하고	-12859
▁강화만이	-12860
▁개선되지	-12861
▁규제하여	-12862
▁높인다는	-12863
▁바로잡고	-12864
▁보완하는	-12865
▁부합하지	-12866
▁분석하고	-12867
▁불편함이	-12868
▁사이에서	-12869
▁살기좋은	-12870
▁생명까지	-12871
▁성장하는	-12872
▁수단이며	-12873
▁악용되고	-12874
▁않았으면	-12875
▁어긋나며	-12876
▁여성들이	-12877
▁완성되지	-12878
▁인정하고	-12879
▁장려하고	-12880
▁제한하고	-12881
▁중범죄를	-12882
▁지급되는	-12883
▁페이스북	-12884
▁폐지시켜	-12885
▁필요성이	-12886
▁해왔으며	-12887
▁행복하게	-12888
▁헌법재판	-12889
ancing	-12890
efully	-12891
mitted	-12892
▁After	-12893
▁Where	-12894
▁board	-12895
▁deval	-12896
▁excel	-12897
▁lists	-12898
▁pursu	-12899
▁round	-12900
▁simpl	-12901
▁tries	-12902
▁upset	-12903
▁결정되어야	-12904
▁구성원들의	-12905
▁미성년자라	-12906
▁방향입니다	-12907
▁범죄로부터	-12908
▁보호해야할	-12909
▁상태입니다	-12910
▁어른들보다	-12911
▁제공하므로	-12912
▁줄어든다는	-12913
▁학교폭력은	-12914
▁해결책이다	-12915
▁driven	-12916
▁errors	-12917
▁figure	-12918
▁outlet	-12919
▁philos	-12920
▁richer	-12921
▁sedent	-12922
▁unrest	-12923
▁현실적입니다	-12924
▁desires	-12925
▁exacerb	-12926
▁finance	-12927
▁gaining	-12928
▁initial	-12929
▁lenders	-12930
▁sitting	-12931
▁advocate	-12932
▁agencies	-12933
▁calories	-12934
▁complain	-12935
▁distance	-12936
▁envelope	-12937
▁examples	-12938
▁movement	-12939
▁resulted	-12940
▁cognitive	-12941
▁copyright	-12942
▁nutrition	-12943
▁operating	-12944
▁pointless	-12945
▁sedentary	-12946
▁sensitive	-12947
▁efficiency	-12948
▁historical	-12949
▁leadership	-12950
▁newspapers	-12951
▁permission	-12952
▁priorities	-12953
▁supportive	-12954
▁connections	-12955
▁fundraising	-12956
▁investments	-12957
▁alternatives	-12958
▁neighborhood	-12959
▁restrictions	-12960
##	-12961
EO	-12962
MT	-12963
ev	-12964
me	-12965
▁X	-12966
▁너	-12967
가면	-12968
건설	-12969
권에	-12970
권은	-12971
나마	-12972
단의	-12973
대중	-12974
대학	-12975
만은	-12976
무니	-12977
법의	-12978
부담	-12979
사태	-12980
수없	-12981
신인	-12982
아동	-12983
연한	-12984
우면	-12985
워서	-12986
이든	-12987
임대	-12988
자도	-12989
자만	-12990
주민	-12991
주차	-12992
집을	-12993
품을	-12994
화는	-12995
화에	-12996
cif	-12997
cru	-12998
eds	-12999
iet	-13000
iny	-13001
oin	-13002
pro	-13003
▁By	-13004
▁ai	-13005
▁ho	-13006
▁가계	-13007
▁공격	-13008
▁납득	-13009
▁낳는	-13010
▁낳으	-13011
▁내리	-13012
▁눈치	-13013
▁다운	-13014
▁대선	-13015
▁동원	-13016
▁때는	-13017
▁마다	-13018
▁무게	-13019
▁물가	-13020
▁뭐가	-13021
▁미리	-13022
▁미비	-13023
▁불확	-13024
▁상쇄	-13025
▁상의	-13026
▁수소	-13027
▁쉬는	-13028
▁심판	-13029
▁엄정	-13030
▁업종	-13031
▁여가	-13032
▁오랫	-13033
▁옳지	-13034
▁외출	-13035
▁육군	-13036
▁일진	-13037
▁임기	-13038
▁임명	-13039
▁자행	-13040
▁장벽	-13041
▁장비	-13042
▁점도	-13043
▁정규	-13044
▁정기	-13045
▁제조	-13046
▁제주	-13047
▁졸음	-13048
▁집값	-13049
▁참을	-13050
▁치뤄	-13051
▁크기	-13052
▁편히	-13053
▁평균	-13054
▁풀려	-13055
▁하자	-13056
▁학폭	-13057
▁한미	-13058
▁향한	-13059
▁허가	-13060
▁형법	-13061
되지않	-13062
들한테	-13063
상으로	-13064
세상이	-13065
시나요	-13066
에대한	-13067
자들을	-13068
정도의	-13069
정책을	-13070
증으로	-13071
진다고	-13072
하는지	-13073
했다면	-13074
행으로	-13075
ason	-13076
cast	-13077
down	-13078
iant	-13079
icip	-13080
irms	-13081
rial	-13082
word	-13083
▁Ban	-13084
▁Eng	-13085
▁bid	-13086
▁fox	-13087
▁quo	-13088
▁sen	-13089
▁une	-13090
▁vit	-13091
▁감축에	-13092
▁갑자기	-13093
▁결혼을	-13094
▁경기를	-13095
▁곳에서	-13096
▁국가는	-13097
▁국방부	-13098
▁꾸준히	-13099
▁나이는	-13100
▁내년에	-13101
▁노동력	-13102
▁눈물이	-13103
▁단기간	-13104
▁단체는	-13105
▁답변을	-13106
▁따르면	-13107
▁때리고	-13108
▁마련할	-13109
▁무참히	-13110
▁문화가	-13111
▁배출의	-13112
▁법안을	-13113
▁부분은	-13114
▁비극을	-13115
▁상황과	-13116
▁선택이	-13117
▁성실히	-13118
▁식량이	-13119
▁안된다	-13120
▁않아도	-13121
▁앞에서	-13122
▁애들은	-13123
▁양질의	-13124
▁엄하게	-13125
▁왜곡을	-13126
▁월급을	-13127
▁위기를	-13128
▁위안부	-13129
▁위협에	-13130
▁위협을	-13131
▁이상한	-13132
▁이용한	-13133
▁일부의	-13134
▁있을수	-13135
▁있음을	-13136
▁자격을	-13137
▁장애가	-13138
▁재사회	-13139
▁적성에	-13140
▁정책과	-13141
▁제고할	-13142
▁조건이	-13143
▁조사를	-13144
▁조성될	-13145
▁조속히	-13146
▁죽이고	-13147
▁지역과	-13148
▁지키고	-13149
▁출퇴근	-13150
▁커플의	-13151
▁터무니	-13152
▁테두리	-13153
▁통합과	-13154
▁평가와	-13155
▁폭행의	-13156
▁풍요를	-13157
▁합법적	-13158
▁허용은	-13159
▁혼란과	-13160
소년법은	-13161
하고있는	-13162
ality	-13163
estic	-13164
guard	-13165
hered	-13166
lined	-13167
▁Abol	-13168
▁Just	-13169
▁Keep	-13170
▁Most	-13171
▁exec	-13172
▁film	-13173
▁five	-13174
▁garb	-13175
▁judg	-13176
▁kidn	-13177
▁magn	-13178
▁musc	-13179
▁pool	-13180
▁rent	-13181
▁stig	-13182
▁stun	-13183
▁tour	-13184
▁trig	-13185
▁vide	-13186
▁walk	-13187
▁강제하는	-13188
▁강화한다	-13189
▁국내에서	-13190
▁국민과의	-13191
▁그들에게	-13192
▁그러므로	-13193
▁낮아지고	-13194
▁때입니다	-13195
▁말입니까	-13196
▁명분으로	-13197
▁비방하는	-13198
▁사람들도	-13199
▁사람으로	-13200
▁사리분별	-13201
▁생각해서	-13202
▁시간선택	-13203
▁아시나요	-13204
▁안정성이	-13205
▁안타깝게	-13206
▁양성평등	-13207
▁억제해야	-13208
▁오랫동안	-13209
▁유연성과	-13210
▁인권보호	-13211
▁전환하여	-13212
▁존중해야	-13213
▁중대성을	-13214
▁집중해야	-13215
▁청원하는	-13216
▁촉진한다	-13217
▁축소시킬	-13218
▁판단력을	-13219
▁해결책을	-13220
▁회복하고	-13221
▁훈방조치	-13222
청원합니다	-13223
irable	-13224
ormous	-13225
▁argue	-13226
▁blind	-13227
▁bunch	-13228
▁cease	-13229
▁colon	-13230
▁deals	-13231
▁indic	-13232
▁negot	-13233
▁novel	-13234
▁prone	-13235
▁quiet	-13236
▁recip	-13237
▁skill	-13238
▁unite	-13239
▁volat	-13240
▁개정보다는	-13241
▁국민들에게	-13242
▁사회복무요	-13243
▁상황에서도	-13244
▁이루어지고	-13245
▁일어납니다	-13246
▁제도이므로	-13247
▁조금이나마	-13248
▁증가시키며	-13249
▁폭행사건과	-13250
▁폭행사건의	-13251
▁해결되어야	-13252
holders	-13253
idering	-13254
▁behave	-13255
▁critic	-13256
▁duties	-13257
▁flawed	-13258
▁locked	-13259
▁myself	-13260
▁points	-13261
▁pushed	-13262
▁regret	-13263
▁retain	-13264
▁stores	-13265
▁sudden	-13266
▁theirs	-13267
▁trials	-13268
▁winter	-13269
▁worlds	-13270
▁반려동물로서	-13271
▁어린아이들이	-13272
▁여성가족부는	-13273
▁자율주행차가	-13274
▁폐지바랍니다	-13275
▁폐지해주시고	-13276
▁avoided	-13277
▁commits	-13278
▁compete	-13279
▁dictate	-13280
▁fitness	-13281
▁immense	-13282
▁imposed	-13283
▁impover	-13284
▁indefin	-13285
▁justify	-13286
▁largest	-13287
▁logical	-13288
▁neither	-13289
▁network	-13290
▁organic	-13291
▁outrage	-13292
▁rampant	-13293
▁relieve	-13294
▁seeking	-13295
▁shelter	-13296
▁tyranny	-13297
▁unknown	-13298
▁winning	-13299
▁American	-13300
▁Question	-13301
▁addicted	-13302
▁advanced	-13303
▁enabling	-13304
▁enormous	-13305
▁imposing	-13306
▁improves	-13307
▁needless	-13308
▁ordinary	-13309
▁preserve	-13310
▁rational	-13311
▁suffered	-13312
▁unlawful	-13313
▁websites	-13314
▁weddings	-13315
▁brainwash	-13316
▁depending	-13317
▁detriment	-13318
▁economies	-13319
▁educators	-13320
▁equipment	-13321
▁illegally	-13322
▁incapable	-13323
▁justified	-13324
▁motivated	-13325
▁performed	-13326
▁practical	-13327
ponsibility	-13328
▁Abolishing	-13329
▁aggressive	-13330
▁attempting	-13331
▁boundaries	-13332
▁collateral	-13333
▁deterrence	-13334
▁exorbitant	-13335
▁journalist	-13336
▁obligatory	-13337
▁preferable	-13338
▁relatively	-13339
▁sentencing	-13340
▁unexpected	-13341
▁implemented	-13342
▁perpetuates	-13343
▁professions	-13344
▁retribution	-13345
▁availability	-13346
▁interference	-13347
▁standardized	-13348
▁assassination	-13349
▁disfigurement	-13350
▁inappropriate	-13351
▁rehabilitated	-13352
▁interpretation	-13353
▁qualifications	-13354
!?	-13355
ES	-13356
ai	-13357
td	-13358
▁굴	-13359
▁꽃	-13360
▁딱	-13361
▁잇	-13362
▁획	-13363
게시	-13364
국이	-13365
기게	-13366
년대	-13367
년차	-13368
되서	-13369
많이	-13370
먹는	-13371
번호	-13372
보며	-13373
보복	-13374
사에	-13375
사용	-13376
석을	-13377
우선	-13378
이로	-13379
적을	-13380
전쟁	-13381
종일	-13382
진을	-13383
트남	-13384
,,,	-13385
bur	-13386
edu	-13387
kel	-13388
▁oh	-13389
▁가난	-13390
▁가서	-13391
▁간섭	-13392
▁거쳐	-13393
▁교직	-13394
▁국립	-13395
▁그의	-13396
▁급격	-13397
▁끊임	-13398
▁남을	-13399
▁내릴	-13400
▁노고	-13401
▁농업	-13402
▁눈감	-13403
▁당해	-13404
▁뜻이	-13405
▁마치	-13406
▁맞고	-13407
▁매달	-13408
▁머리	-13409
▁무능	-13410
▁무작	-13411
▁문의	-13412
▁방어	-13413
▁봐줄	-13414
▁사정	-13415
▁살게	-13416
▁삶에	-13417
▁상호	-13418
▁선언	-13419
▁세종	-13420
▁쉬운	-13421
▁알바	-13422
▁애기	-13423
▁여겨	-13424
▁오직	-13425
▁요건	-13426
▁위에	-13427
▁이거	-13428
▁이웃	-13429
▁인생	-13430
▁인체	-13431
▁일도	-13432
▁잃어	-13433
▁자꾸	-13434
▁잡아	-13435
▁장래	-13436
▁접수	-13437
▁지식	-13438
▁참혹	-13439
▁친일	-13440
▁태도	-13441
▁통신	-13442
▁통학	-13443
▁학력	-13444
▁화합	-13445
▁흥미	-13446
것인지	-13447
교육이	-13448
기관의	-13449
마시고	-13450
발전소	-13451
생활에	-13452
스러워	-13453
시키기	-13454
았는데	-13455
업체에	-13456
이라서	-13457
자식이	-13458
잘못을	-13459
처벌이	-13460
anth	-13461
lier	-13462
ophy	-13463
rass	-13464
tion	-13465
▁Wow	-13466
▁gre	-13467
▁mad	-13468
▁nut	-13469
▁ped	-13470
▁pus	-13471
▁sea	-13472
▁가치에	-13473
▁감소에	-13474
▁갑니다	-13475
▁고착화	-13476
▁과정이	-13477
▁교육부	-13478
▁그름을	-13479
▁급여를	-13480
▁기르는	-13481
▁기사가	-13482
▁나아가	-13483
▁나와서	-13484
▁느끼게	-13485
▁늘어날	-13486
▁단기적	-13487
▁되었고	-13488
▁되지않	-13489
▁맞춰야	-13490
▁목표를	-13491
▁무단횡	-13492
▁무주택	-13493
▁반대로	-13494
▁발달적	-13495
▁방법은	-13496
▁벗어난	-13497
▁부분이	-13498
▁설정된	-13499
▁성숙해	-13500
▁세금이	-13501
▁수행할	-13502
▁시작한	-13503
▁실수를	-13504
▁아이낳	-13505
▁안정에	-13506
▁어디서	-13507
▁어쩌면	-13508
▁어차피	-13509
▁영유아	-13510
▁영향이	-13511
▁원칙이	-13512
▁위주의	-13513
▁이글을	-13514
▁인력의	-13515
▁일으키	-13516
▁있네요	-13517
▁자체의	-13518
▁저하와	-13519
▁전환이	-13520
▁정신을	-13521
▁정책적	-13522
▁주시고	-13523
▁주택을	-13524
▁죽이는	-13525
▁지역구	-13526
▁직접적	-13527
▁책임도	-13528
▁첫걸음	-13529
▁취지에	-13530
▁치유와	-13531
▁통하여	-13532
▁폭행한	-13533
▁학생부	-13534
▁해소를	-13535
▁혼잡이	-13536
▁환경의	-13537
▁회복이	-13538
▁효과에	-13539
▁흐름을	-13540
하지않는	-13541
학생들이	-13542
auses	-13543
onoun	-13544
uting	-13545
while	-13546
▁York	-13547
▁anti	-13548
▁deem	-13549
▁died	-13550
▁diff	-13551
▁flex	-13552
▁merc	-13553
▁proc	-13554
▁강화되어	-13555
▁고민하는	-13556
▁고속버스	-13557
▁공공성을	-13558
▁그로인해	-13559
▁났습니다	-13560
▁단정하는	-13561
▁마음놓고	-13562
▁못한다면	-13563
▁반복하지	-13564
▁법이라는	-13565
▁부추기고	-13566
▁악마같은	-13567
▁앞으로의	-13568
▁어려우며	-13569
▁어린아이	-13570
▁운영되는	-13571
▁이들에게	-13572
▁자기들이	-13573
▁저해하며	-13574
▁적용되는	-13575
▁전문성이	-13576
▁접근성을	-13577
▁제한되어	-13578
▁처벌하지	-13579
▁폐지요청	-13580
▁한아이의	-13581
▁할지라도	-13582
대한민국의	-13583
▁adapt	-13584
▁afric	-13585
▁array	-13586
▁beach	-13587
▁incur	-13588
▁jumps	-13589
▁likel	-13590
▁owned	-13591
▁pages	-13592
▁stars	-13593
▁tempt	-13594
▁vegan	-13595
▁것만으로는	-13596
▁공식적으로	-13597
▁넘어가서는	-13598
▁사람으로서	-13599
▁살려주세요	-13600
▁스트레스와	-13601
▁심각하지만	-13602
▁우선입니다	-13603
▁육아휴직을	-13604
▁이런식으로	-13605
▁인정하지만	-13606
▁존중받아야	-13607
▁필요하다면	-13608
▁Amazon	-13609
▁Thanks	-13610
▁assets	-13611
▁checks	-13612
▁corner	-13613
▁define	-13614
▁detect	-13615
▁mobile	-13616
▁raises	-13617
▁stocks	-13618
▁summer	-13619
▁widely	-13620
▁대중교통으로	-13621
▁받아야한다고	-13622
▁보호받아야할	-13623
▁보호해주세요	-13624
▁프로그램으로	-13625
▁carries	-13626
▁granted	-13627
▁monthly	-13628
▁passing	-13629
▁pronoun	-13630
▁pushing	-13631
▁scenari	-13632
▁단정하기보다는	-13633
▁argument	-13634
▁networks	-13635
▁received	-13636
▁recently	-13637
▁automatic	-13638
▁chemicals	-13639
▁confusion	-13640
▁corporate	-13641
▁intention	-13642
▁obviously	-13643
▁officials	-13644
▁promotion	-13645
▁providers	-13646
▁realistic	-13647
▁recognize	-13648
▁characters	-13649
▁frequently	-13650
▁incredible	-13651
▁introduced	-13652
▁likelihood	-13653
▁occupation	-13654
▁worthwhile	-13655
▁agriculture	-13656
!~	-13657
EC	-13658
km	-13659
▁)	-13660
▁Z	-13661
▁갓	-13662
▁엘	-13663
▁탁	-13664
▁푸	-13665
과도	-13666
남도	-13667
념을	-13668
단계	-13669
대와	-13670
때문	-13671
로도	-13672
로에	-13673
무현	-13674
버려	-13675
부패	-13676
성시	-13677
소싱	-13678
수로	-13679
아려	-13680
업무	-13681
연령	-13682
오면	-13683
은행	-13684
있게	-13685
정기	-13686
중이	-13687
징병	-13688
하죠	-13689
화점	-13690
auc	-13691
cul	-13692
mar	-13693
▁ᅲᅲ	-13694
▁가득	-13695
▁거기	-13696
▁거절	-13697
▁공기	-13698
▁기저	-13699
▁끔직	-13700
▁끝난	-13701
▁넘게	-13702
▁다행	-13703
▁담론	-13704
▁대피	-13705
▁덜어	-13706
▁도전	-13707
▁민사	-13708
▁받으	-13709
▁발급	-13710
▁벌이	-13711
▁보람	-13712
▁보인	-13713
▁보전	-13714
▁보지	-13715
▁불리	-13716
▁살수	-13717
▁생겼	-13718
▁서슴	-13719
▁소액	-13720
▁소위	-13721
▁소음	-13722
▁수치	-13723
▁순수	-13724
▁신천	-13725
▁싫어	-13726
▁애를	-13727
▁야당	-13728
▁양도	-13729
▁연금	-13730
▁옳은	-13731
▁왜냐	-13732
▁워킹	-13733
▁유통	-13734
▁윤리	-13735
▁이걸	-13736
▁인근	-13737
▁일로	-13738
▁입사	-13739
▁잊혀	-13740
▁전락	-13741
▁주목	-13742
▁주소	-13743
▁즉시	-13744
▁질적	-13745
▁척결	-13746
▁촉구	-13747
▁카드	-13748
▁퇴출	-13749
▁피고	-13750
▁하다	-13751
▁회계	-13752
개정이	-13753
거라는	-13754
그리고	-13755
당하는	-13756
부장관	-13757
살아갈	-13758
식적인	-13759
야말로	-13760
어야할	-13761
월부터	-13762
을위해	-13763
준다는	-13764
해주고	-13765
현실에	-13766
aken	-13767
appy	-13768
arth	-13769
ball	-13770
cive	-13771
eled	-13772
iles	-13773
ogle	-13774
oler	-13775
onym	-13776
ropy	-13777
ysis	-13778
▁Bec	-13779
▁Use	-13780
▁box	-13781
▁haz	-13782
▁luc	-13783
▁obe	-13784
▁scr	-13785
▁sla	-13786
▁son	-13787
▁tit	-13788
▁unm	-13789
▁upd	-13790
▁web	-13791
▁가정에	-13792
▁가치가	-13793
▁가혹한	-13794
▁검찰의	-13795
▁것이고	-13796
▁고통받	-13797
▁고통이	-13798
▁교사는	-13799
▁급증을	-13800
▁높아져	-13801
▁능사가	-13802
▁다뤄야	-13803
▁단계적	-13804
▁당사자	-13805
▁대표팀	-13806
▁대학교	-13807
▁되돌릴	-13808
▁맞지만	-13809
▁바꿔야	-13810
▁반영해	-13811
▁받도록	-13812
▁받아서	-13813
▁배우는	-13814
▁변화에	-13815
▁보도를	-13816
▁보이고	-13817
▁복지가	-13818
▁부담의	-13819
▁부추길	-13820
▁분배를	-13821
▁불안을	-13822
▁비롯한	-13823
▁비행의	-13824
▁비행이	-13825
▁사드를	-13826
▁사례는	-13827
▁상황은	-13828
▁생성한	-13829
▁성격이	-13830
▁세대를	-13831
▁수업을	-13832
▁수준에	-13833
▁시각은	-13834
▁신태용	-13835
▁아닐까	-13836
▁아프고	-13837
▁약해서	-13838
▁어디에	-13839
▁어른들	-13840
▁여부와	-13841
▁연구가	-13842
▁옳다고	-13843
▁우리도	-13844
▁육아에	-13845
▁의견이	-13846
▁의료를	-13847
▁의사가	-13848
▁자녀가	-13849
▁자리를	-13850
▁잔디좀	-13851
▁접근도	-13852
▁정착을	-13853
▁제한을	-13854
▁존중의	-13855
▁주변에	-13856
▁중국발	-13857
▁중점을	-13858
▁지켜주	-13859
▁집단에	-13860
▁차단될	-13861
▁차이와	-13862
▁처형될	-13863
▁통제를	-13864
▁특혜를	-13865
▁포기한	-13866
▁하네요	-13867
▁하세요	-13868
▁한국은	-13869
▁해결과	-13870
▁해결해	-13871
▁해산을	-13872
▁형성이	-13873
▁회복에	-13874
대입니다	-13875
제한구역	-13876
하겠다는	-13877
aired	-13878
apped	-13879
asive	-13880
inder	-13881
ishes	-13882
▁Also	-13883
▁Stay	-13884
▁Sure	-13885
▁cate	-13886
▁gave	-13887
▁heat	-13888
▁lapt	-13889
▁lone	-13890
▁myth	-13891
▁outf	-13892
▁rape	-13893
▁stup	-13894
▁unus	-13895
▁개선하여	-13896
▁개입으로	-13897
▁고령자라	-13898
▁기다리고	-13899
▁대통령은	-13900
▁대표성과	-13901
▁두려움을	-13902
▁명목으로	-13903
▁목소리는	-13904
▁반대하는	-13905
▁반영하는	-13906
▁반영하지	-13907
▁범죄자는	-13908
▁병역의무	-13909
▁사유화를	-13910
▁생명권과	-13911
▁선생님이	-13912
▁성인범죄	-13913
▁아무렇지	-13914
▁아웃소싱	-13915
▁악랄하고	-13916
▁어떨까요	-13917
▁어린이와	-13918
▁의무화할	-13919
▁임대주택	-13920
▁있겠지만	-13921
▁작품에도	-13922
▁재개하는	-13923
▁전면적인	-13924
▁창의성이	-13925
▁책임지는	-13926
▁축구장에	-13927
▁할수있는	-13928
▁해당하는	-13929
▁효과보다	-13930
▁후보자의	-13931
해야한다고	-13932
arious	-13933
uition	-13934
▁award	-13935
▁bench	-13936
▁bless	-13937
▁bombs	-13938
▁cares	-13939
▁cleft	-13940
▁crack	-13941
▁crops	-13942
▁dimin	-13943
▁dirty	-13944
▁empty	-13945
▁frame	-13946
▁lands	-13947
▁paint	-13948
▁pimps	-13949
▁print	-13950
▁steps	-13951
▁surge	-13952
▁thats	-13953
▁tired	-13954
▁가능해진다	-13955
▁걱정됩니다	-13956
▁권력층으로	-13957
▁극대화하여	-13958
▁날이갈수록	-13959
▁대안입니다	-13960
▁동물보호법	-13961
▁될것입니다	-13962
▁미혼부모에	-13963
▁범죄자들을	-13964
▁부산중학생	-13965
▁선택입니다	-13966
▁소년보호법	-13967
▁아니더라도	-13968
▁우리나라에	-13969
▁입장에서는	-13970
▁취지입니다	-13971
▁키우고있는	-13972
▁퍼뜨리거나	-13973
▁필수적이며	-13974
▁해주셨으면	-13975
▁향상시키고	-13976
▁향상이라는	-13977
ndering	-13978
ulation	-13979
▁adding	-13980
▁clones	-13981
▁detail	-13982
▁ethics	-13983
▁excuse	-13984
▁favour	-13985
▁fights	-13986
▁gather	-13987
▁hunger	-13988
▁indisc	-13989
▁length	-13990
▁occurs	-13991
▁preval	-13992
▁regime	-13993
▁rising	-13994
▁ruined	-13995
▁seeing	-13996
▁todays	-13997
▁unscru	-13998
▁개발제한구역	-13999
▁우리아이들이	-14000
▁하고있습니다	-14001
arriages	-14002
function	-14003
informed	-14004
iversity	-14005
rogation	-14006
vernment	-14007
▁Banning	-14008
▁bearing	-14009
▁disturb	-14010
▁dressed	-14011
▁earning	-14012
▁federal	-14013
▁garbage	-14014
▁intoler	-14015
▁lacking	-14016
▁nowhere	-14017
▁opening	-14018
▁outlets	-14019
▁release	-14020
▁reports	-14021
▁savings	-14022
▁spouses	-14023
▁tactics	-14024
▁warfare	-14025
▁소년법폐지강력	-14026
▁Allowing	-14027
▁achieved	-14028
▁atheists	-14029
▁avoiding	-14030
▁billions	-14031
▁creators	-14032
▁instinct	-14033
▁punishes	-14034
▁studying	-14035
▁suppress	-14036
▁tortured	-14037
▁일어나고있습니다	-14038
ropriately	-14039
▁Executive	-14040
▁arguments	-14041
▁believing	-14042
▁cancelled	-14043
▁competent	-14044
▁graduates	-14045
▁infringes	-14046
▁injustice	-14047
▁lucrative	-14048
▁penalties	-14049
▁perceived	-14050
▁practiced	-14051
▁pressured	-14052
▁reduction	-14053
▁requiring	-14054
▁sentenced	-14055
▁suspected	-14056
▁teachings	-14057
▁teenagers	-14058
▁tolerated	-14059
▁Journalism	-14060
▁dedication	-14061
▁electorate	-14062
▁expressing	-14063
▁lifestyles	-14064
▁monogamous	-14065
▁orphanages	-14066
▁outrageous	-14067
▁prejudices	-14068
▁reinforces	-14069
▁uneducated	-14070
▁weaknesses	-14071
▁application	-14072
▁complicated	-14073
▁considering	-14074
▁innovations	-14075
▁Prostitution	-14076
▁developments	-14077
▁disabilities	-14078
▁humanitarian	-14079
▁impoverished	-14080
▁imprisonment	-14081
▁increasingly	-14082
▁concentration	-14083
▁traditionally	-14084
▁reconstructive	-14085
lo	-14086
ze	-14087
▁낸	-14088
▁덕	-14089
▁쇼	-14090
▁썩	-14091
▁짖	-14092
▁케	-14093
개를	-14094
것과	-14095
게임	-14096
경기	-14097
경이	-14098
계획	-14099
관에	-14100
군의	-14101
글올	-14102
금융	-14103
기엔	-14104
느냐	-14105
니깐	-14106
니티	-14107
다나	-14108
당시	-14109
량의	-14110
만명	-14111
매체	-14112
모두	-14113
무리	-14114
범이	-14115
볼때	-14116
소녀	-14117
소송	-14118
소통	-14119
수정	-14120
실에	-14121
실이	-14122
악용	-14123
역을	-14124
오라	-14125
우지	-14126
위기	-14127
이드	-14128
임용	-14129
자금	-14130
전형	-14131
짜리	-14132
책이	-14133
층에	-14134
퇴직	-14135
편히	-14136
회에	-14137
ECD	-14138
bel	-14139
how	-14140
ifi	-14141
low	-14142
oke	-14143
rit	-14144
▁pm	-14145
▁갔다	-14146
▁격차	-14147
▁고문	-14148
▁곳에	-14149
▁과태	-14150
▁그름	-14151
▁그지	-14152
▁남겨	-14153
▁내고	-14154
▁내딸	-14155
▁냄새	-14156
▁노선	-14157
▁늦은	-14158
▁담고	-14159
▁대포	-14160
▁데서	-14161
▁되길	-14162
▁될수	-14163
▁드는	-14164
▁링크	-14165
▁마감	-14166
▁멈춰	-14167
▁법조	-14168
▁비공	-14169
▁비하	-14170
▁사행	-14171
▁설정	-14172
▁성추	-14173
▁소중	-14174
▁수렴	-14175
▁수술	-14176
▁시계	-14177
▁신혼	-14178
▁싶지	-14179
▁안돼	-14180
▁안좋	-14181
▁앞당	-14182
▁요양	-14183
▁유동	-14184
▁유리	-14185
▁유용	-14186
▁자가	-14187
▁자료	-14188
▁작동	-14189
▁잠깐	-14190
▁잠시	-14191
▁장병	-14192
▁장사	-14193
▁재래	-14194
▁존속	-14195
▁죄값	-14196
▁주위	-14197
▁직렬	-14198
▁진보	-14199
▁착한	-14200
▁창업	-14201
▁최대	-14202
▁축산	-14203
▁충당	-14204
▁통근	-14205
▁피가	-14206
▁합류	-14207
▁했던	-14208
▁혼동	-14209
▁화재	-14210
▁회의	-14211
가지고	-14212
거에요	-14213
것이고	-14214
나라가	-14215
당하고	-14216
로인해	-14217
스럽고	-14218
열지구	-14219
올림픽	-14220
원들의	-14221
일들이	-14222
전부터	-14223
제도의	-14224
줍니까	-14225
키우기	-14226
하기를	-14227
하라고	-14228
aine	-14229
apan	-14230
port	-14231
ucks	-14232
▁Our	-14233
▁Sec	-14234
▁She	-14235
▁fig	-14236
▁mix	-14237
▁rat	-14238
▁url	-14239
▁가족과	-14240
▁거기에	-14241
▁검토가	-14242
▁공공부	-14243
▁과정의	-14244
▁관계에	-14245
▁교화의	-14246
▁국가와	-14247
▁기업이	-14248
▁남성을	-14249
▁논란을	-14250
▁높인다	-14251
▁뉴스로	-14252
▁늘리는	-14253
▁달라질	-14254
▁담보할	-14255
▁대출을	-14256
▁댓글을	-14257
▁데에도	-14258
▁들어서	-14259
▁들어주	-14260
▁디자인	-14261
▁딸아이	-14262
▁못하며	-14263
▁바꾸는	-14264
▁받지못	-14265
▁방지할	-14266
▁방해가	-14267
▁배제할	-14268
▁복귀가	-14269
▁부산과	-14270
▁부정할	-14271
▁빈곤과	-14272
▁빠뜨릴	-14273
▁사용이	-14274
▁생활의	-14275
▁성차별	-14276
▁수수료	-14277
▁수위가	-14278
▁실력을	-14279
▁실시간	-14280
▁실패로	-14281
▁아무도	-14282
▁아이도	-14283
▁엄연히	-14284
▁없어요	-14285
▁여론의	-14286
▁역할과	-14287
▁예산이	-14288
▁예전에	-14289
▁왜곡할	-14290
▁요건을	-14291
▁우려로	-14292
▁워킹맘	-14293
▁은행원	-14294
▁이것을	-14295
▁인권의	-14296
▁읽어주	-14297
▁작용할	-14298
▁잘못이	-14299
▁장관님	-14300
▁재원을	-14301
▁전문성	-14302
▁전쟁이	-14303
▁정상화	-14304
▁제외한	-14305
▁지난해	-14306
▁지역에	-14307
▁처벌수	-14308
▁처벌해	-14309
▁최선을	-14310
▁피해는	-14311
▁하거나	-14312
▁한가지	-14313
▁확보와	-14314
▁효율적	-14315
▁휴식을	-14316
다는것을	-14317
되어서는	-14318
사람들이	-14319
해야하는	-14320
ember	-14321
ensed	-14322
erved	-14323
otion	-14324
rated	-14325
▁OECD	-14326
▁Phil	-14327
▁aids	-14328
▁clog	-14329
▁dial	-14330
▁fits	-14331
▁four	-14332
▁heal	-14333
▁outs	-14334
▁shut	-14335
▁song	-14336
▁가로막을	-14337
▁가족들은	-14338
▁공무원이	-14339
▁공정성이	-14340
▁그럼에도	-14341
▁기다리는	-14342
▁끊임없이	-14343
▁너무너무	-14344
▁누구에게	-14345
▁다르므로	-14346
▁다양성이	-14347
▁단기간에	-14348
▁독립적인	-14349
▁두아이의	-14350
▁말하고자	-14351
▁명확하지	-14352
▁무단횡단	-14353
▁무서워요	-14354
▁무엇인지	-14355
▁반성하지	-14356
▁병행되지	-14357
▁불안정한	-14358
▁시작으로	-14359
▁실현해야	-14360
▁아래에서	-14361
▁안정성에	-14362
▁약하다고	-14363
▁억압하고	-14364
▁예방해야	-14365
▁원인으로	-14366
▁의존도를	-14367
▁이상으로	-14368
▁입장으로	-14369
▁자율성이	-14370
▁저지르지	-14371
▁저해하는	-14372
▁적극적인	-14373
▁전환하는	-14374
▁제공해야	-14375
▁주장보다	-14376
▁중학생이	-14377
▁처벌하여	-14378
▁친구들이	-14379
▁포용성을	-14380
▁피해자도	-14381
▁해주시길	-14382
▁행동들을	-14383
▁활성화를	-14384
accept	-14385
inated	-14386
inging	-14387
ocused	-14388
▁analy	-14389
▁crowd	-14390
▁debts	-14391
▁hired	-14392
▁kills	-14393
▁sanct	-14394
▁solid	-14395
▁train	-14396
▁undes	-14397
▁객관적으로	-14398
▁느꼈습니다	-14399
▁답답합니다	-14400
▁보육료인상	-14401
▁보호해줘야	-14402
▁불안합니다	-14403
▁상대적으로	-14404
▁아빠입니다	-14405
▁중고등학생	-14406
▁축구협회는	-14407
▁폐지하세요	-14408
▁해주십시요	-14409
▁활용하려는	-14410
▁희망합니다	-14411
ception	-14412
▁compar	-14413
▁divide	-14414
▁facial	-14415
▁guidel	-14416
▁hidden	-14417
▁leader	-14418
▁mercen	-14419
▁minute	-14420
▁preced	-14421
▁sacrif	-14422
▁tested	-14423
▁unpred	-14424
▁생각해주세요	-14425
▁소년법입니다	-14426
▁유사수신행위	-14427
▁자유한국당은	-14428
▁청소년입니다	-14429
범죄를저지르고	-14430
어리다는이유로	-14431
anthropy	-14432
pectives	-14433
▁America	-14434
▁assault	-14435
▁deliver	-14436
▁earlier	-14437
▁감사하겠습니다	-14438
oundation	-14439
▁facility	-14440
▁graduate	-14441
▁reaching	-14442
▁strategy	-14443
▁부탁드리겠습니다	-14444
▁청소년이란이유로	-14445
▁borrowing	-14446
▁confident	-14447
▁construct	-14448
▁marketing	-14449
▁objective	-14450
▁reputable	-14451
▁socialize	-14452
▁voluntary	-14453
▁청소년보호법이라는	-14454
▁industrial	-14455
▁prosecuted	-14456
▁restaurant	-14457
▁perspective	-14458
▁contribution	-14459
▁difficulties	-14460
▁distribution	-14461
▁implications	-14462
▁individually	-14463
▁instructions	-14464
▁perspectives	-14465
▁controversial	-14466
EN	-14467
ON	-14468
ug	-14469
▁움	-14470
▁첨	-14471
☆☆	-14472
것만	-14473
결과	-14474
과후	-14475
구조	-14476
국에	-14477
금액	-14478
능을	-14479
니터	-14480
마련	-14481
맞는	-14482
배를	-14483
사례	-14484
서울	-14485
수저	-14486
스를	-14487
시작	-14488
신을	-14489
심에	-14490
열로	-14491
원과	-14492
이더	-14493
인재	-14494
인증	-14495
일도	-14496
저도	-14497
주에	-14498
지며	-14499
질에	-14500
처를	-14501
통신	-14502
판에	-14503
형이	-14504
화문	-14505
ULD	-14506
alu	-14507
exp	-14508
not	-14509
yam	-14510
▁Ec	-14511
▁IS	-14512
▁경남	-14513
▁골목	-14514
▁극복	-14515
▁기분	-14516
▁깨달	-14517
▁나름	-14518
▁낭비	-14519
▁노약	-14520
▁들고	-14521
▁들이	-14522
▁마트	-14523
▁만나	-14524
▁말아	-14525
▁민족	-14526
▁배울	-14527
▁법치	-14528
▁보냈	-14529
▁비상	-14530
▁삶과	-14531
▁삼아	-14532
▁상품	-14533
▁상향	-14534
▁성희	-14535
▁소모	-14536
▁소화	-14537
▁손해	-14538
▁실무	-14539
▁심심	-14540
▁아산	-14541
▁안일	-14542
▁어마	-14543
▁어이	-14544
▁연휴	-14545
▁영악	-14546
▁오후	-14547
▁운송	-14548
▁위상	-14549
▁위장	-14550
▁육류	-14551
▁육성	-14552
▁이리	-14553
▁읽어	-14554
▁장소	-14555
▁재검	-14556
▁정리	-14557
▁죽어	-14558
▁죽을	-14559
▁지능	-14560
▁집에	-14561
▁참고	-14562
▁청약	-14563
▁토지	-14564
▁편견	-14565
▁항일	-14566
▁협회	-14567
▁후손	-14568
▁휴무	-14569
고양이	-14570
다니는	-14571
대에서	-14572
되거나	-14573
만해도	-14574
뿐만이	-14575
시민이	-14576
여고생	-14577
제도를	-14578
죄책감	-14579
Your	-14580
amed	-14581
aret	-14582
illy	-14583
late	-14584
oman	-14585
rine	-14586
seen	-14587
what	-14588
▁Con	-14589
▁SHO	-14590
▁Why	-14591
▁cig	-14592
▁cup	-14593
▁dip	-14594
▁pop	-14595
▁pub	-14596
▁seg	-14597
▁urg	-14598
▁가격이	-14599
▁가정이	-14600
▁갈등의	-14601
▁같네요	-14602
▁같아서	-14603
▁같은데	-14604
▁개발을	-14605
▁것처럼	-14606
▁공무직	-14607
▁공백이	-14608
▁관리와	-14609
▁관하여	-14610
▁교도소	-14611
▁기반이	-14612
▁나머지	-14613
▁나이로	-14614
▁남성이	-14615
▁노력은	-14616
▁노무현	-14617
▁단정할	-14618
▁대다수	-14619
▁댓가를	-14620
▁동반자	-14621
▁되나요	-14622
▁되어서	-14623
▁되어있	-14624
▁두어야	-14625
▁마련을	-14626
▁무너질	-14627
▁무리가	-14628
▁무작정	-14629
▁방법을	-14630
▁배아를	-14631
▁베스트	-14632
▁베트남	-14633
▁부모와	-14634
▁분노와	-14635
▁분들은	-14636
▁불안정	-14637
▁비행은	-14638
▁사건들	-14639
▁사실과	-14640
▁상쇄할	-14641
▁서울에	-14642
▁선처를	-14643
▁성숙한	-14644
▁시간에	-14645
▁싶어도	-14646
▁아니지	-14647
▁아닌지	-14648
▁아동을	-14649
▁안받는	-14650
▁앗아갈	-14651
▁억제와	-14652
▁언론에	-14653
▁얼굴을	-14654
▁여지를	-14655
▁영향에	-14656
▁오르고	-14657
▁유전적	-14658
▁의견과	-14659
▁의도가	-14660
▁이상을	-14661
▁이용될	-14662
▁이지스	-14663
▁일괄적	-14664
▁일이며	-14665
▁잠재적	-14666
▁절차의	-14667
▁제고로	-14668
▁제재가	-14669
▁제재를	-14670
▁종합적	-14671
▁좋지만	-14672
▁죄없는	-14673
▁주어야	-14674
▁청원의	-14675
▁추세에	-14676
▁측면이	-14677
▁치뤄야	-14678
▁타당한	-14679
▁통합할	-14680
▁퇴직금	-14681
▁포괄적	-14682
▁하나가	-14683
▁하다가	-14684
▁한계를	-14685
▁한달에	-14686
▁합류할	-14687
▁행복을	-14688
▁혁신과	-14689
▁혁신이	-14690
▁현실화	-14691
▁형태를	-14692
▁훈련을	-14693
▁희생을	-14694
▁힘써야	-14695
사입니다	-14696
처음으로	-14697
asure	-14698
iders	-14699
itage	-14700
ompet	-14701
ondon	-14702
▁List	-14703
▁Requ	-14704
▁adds	-14705
▁alth	-14706
▁card	-14707
▁cast	-14708
▁cuts	-14709
▁decl	-14710
▁dete	-14711
▁fant	-14712
▁hind	-14713
▁holy	-14714
▁info	-14715
▁reve	-14716
▁sett	-14717
▁size	-14718
▁stor	-14719
▁sway	-14720
▁symp	-14721
▁vill	-14722
▁wont	-14723
▁강화라는	-14724
▁개발하고	-14725
▁공동체의	-14726
▁공휴일이	-14727
▁교육부는	-14728
▁기초생활	-14729
▁나옵니다	-14730
▁내아이가	-14731
▁뉴스에서	-14732
▁대통령과	-14733
▁대통령을	-14734
▁드리고자	-14735
▁못하므로	-14736
▁바람직할	-14737
▁반영하기	-14738
▁법이라고	-14739
▁보여주는	-14740
▁보육료가	-14741
▁본보기로	-14742
▁비영리적	-14743
▁사교육이	-14744
▁생산성을	-14745
▁어린이의	-14746
▁억울하고	-14747
▁여성징병	-14748
▁왜냐하면	-14749
▁자율권을	-14750
▁저해한다	-14751
▁전문성에	-14752
▁전체적인	-14753
▁정당하게	-14754
▁죄책감도	-14755
▁증가하는	-14756
▁축소되어	-14757
▁친구들은	-14758
▁피해자들	-14759
▁해소하고	-14760
▁해외에서	-14761
▁행동하는	-14762
▁호소하는	-14763
......	-14764
anical	-14765
arried	-14766
illing	-14767
istics	-14768
itious	-14769
pulous	-14770
rained	-14771
▁Earth	-14772
▁anger	-14773
▁aside	-14774
▁breat	-14775
▁china	-14776
▁entry	-14777
▁evalu	-14778
▁faces	-14779
▁feeds	-14780
▁frees	-14781
▁gover	-14782
▁honor	-14783
▁intim	-14784
▁livel	-14785
▁plans	-14786
▁rogue	-14787
▁route	-14788
▁sites	-14789
▁stage	-14790
▁stick	-14791
▁trees	-14792
▁troub	-14793
▁undem	-14794
▁가능하도록	-14795
▁가속화하여	-14796
▁강조하지만	-14797
▁강화하므로	-14798
▁국민으로써	-14799
▁대체공휴일	-14800
▁대통령님이	-14801
▁미성년자가	-14802
▁방법입니다	-14803
▁보호한다는	-14804
▁부분입니다	-14805
▁시민입니다	-14806
▁안정적이고	-14807
▁의문입니다	-14808
▁의사결정의	-14809
▁이루어지지	-14810
▁일변도로는	-14811
▁잔인해지고	-14812
▁장치이므로	-14813
▁정치적으로	-14814
▁폐지하자는	-14815
▁폭행사건에	-14816
onsense	-14817
▁Specif	-14818
▁breeds	-14819
▁deploy	-14820
▁expend	-14821
▁friday	-14822
▁greedy	-14823
▁heroin	-14824
▁hugely	-14825
▁injury	-14826
▁latest	-14827
▁lonely	-14828
▁mutual	-14829
▁oceans	-14830
▁preach	-14831
▁relate	-14832
▁stupid	-14833
▁surely	-14834
▁wrongs	-14835
▁국제사회에서	-14836
▁도와주십시오	-14837
▁무조건적으로	-14838
▁문재인정부의	-14839
▁미성년자들이	-14840
▁생각했습니다	-14841
▁인천초등학생	-14842
hibition	-14843
▁Request	-14844
▁anybody	-14845
▁careful	-14846
▁cigaret	-14847
▁cocaine	-14848
▁costing	-14849
▁cutting	-14850
▁demoral	-14851
▁discuss	-14852
▁enjoyed	-14853
▁equival	-14854
▁exposes	-14855
▁failing	-14856
▁focuses	-14857
▁labeled	-14858
▁morning	-14859
▁objects	-14860
▁reliant	-14861
▁restore	-14862
▁routine	-14863
▁suppose	-14864
▁unusual	-14865
▁wedding	-14866
▁Economic	-14867
▁although	-14868
▁consumed	-14869
▁contrary	-14870
▁deserved	-14871
▁designer	-14872
▁elective	-14873
▁excluded	-14874
▁focusing	-14875
▁impaired	-14876
▁incentiv	-14877
▁interven	-14878
▁mistreat	-14879
▁mobility	-14880
▁occurred	-14881
▁offences	-14882
▁starving	-14883
▁underage	-14884
▁whenever	-14885
▁worrying	-14886
▁Venezuela	-14887
▁affecting	-14888
▁deterring	-14889
▁discourse	-14890
▁enforcing	-14891
▁ethnicity	-14892
▁exclusive	-14893
▁extremist	-14894
▁incidents	-14895
▁intellect	-14896
▁monitored	-14897
▁relatives	-14898
▁stressful	-14899
▁threatens	-14900
▁uncertain	-14901
▁volunteer	-14902
▁청소년보호법폐지를	-14903
▁disfigured	-14904
▁eliminates	-14905
▁exploiting	-14906
▁functional	-14907
▁guidelines	-14908
▁interferes	-14909
▁livelihood	-14910
▁perpetuate	-14911
▁prioritize	-14912
▁proportion	-14913
▁recipients	-14914
▁sanctioned	-14915
▁unemployed	-14916
▁청소년법폐지해주세요	-14917
~~~~~~~~~~~~	-14918
▁demonstrate	-14919
▁determining	-14920
▁endangering	-14921
▁involvement	-14922
▁nutritional	-14923
▁progression	-14924
▁recognition	-14925
▁restrictive	-14926
▁temperature	-14927
▁Intellectual	-14928
▁biologically	-14929
▁brainwashing	-14930
▁conventional	-14931
▁indefinitely	-14932
▁irrespective	-14933
▁miscarriages	-14934
▁specifically	-14935
▁unscrupulous	-14936
▁소년법폐지강력요구합니다	-14937
▁incarceration	-14938
▁socialization	-14939
▁Responsibility	-14940
%,	-14941
.]	-14942
uf	-14943
▁럽	-14944
▁층	-14945
가구	-14946
거같	-14947
건데	-14948
국을	-14949
그지	-14950
내에	-14951
단을	-14952
당에	-14953
대생	-14954
도안	-14955
러야	-14956
면을	-14957
목을	-14958
무기	-14959
무섭	-14960
무악	-14961
뭔의	-14962
바일	-14963
반변	-14964
벌백	-14965
세계	-14966
수업	-14967
심판	-14968
아는	-14969
아버	-14970
업종	-14971
였던	-14972
왔고	-14973
외교	-14974
외에	-14975
의료	-14976
이땅	-14977
인천	-14978
입장	-14979
차는	-14980
체로	-14981
탄스	-14982
패스	-14983
표준	-14984
학과	-14985
해결	-14986
eme	-14987
eur	-14988
ode	-14989
▁Re	-14990
▁UN	-14991
▁가스	-14992
▁감히	-14993
▁갖는	-14994
▁겪은	-14995
▁결여	-14996
▁계시	-14997
▁고스	-14998
▁고충	-14999
▁국어	-15000
▁그것	-15001
▁그랬	-15002
▁글이	-15003
▁금방	-15004
▁길에	-15005
▁날을	-15006
▁남한	-15007
▁눈에	-15008
▁당할	-15009
▁대단	-15010
▁더는	-15011
▁도박	-15012
▁동기	-15013
▁동맹	-15014
▁동참	-15015
▁되게	-15016
▁따뜻	-15017
▁떠나	-15018
▁럽기	-15019
▁매출	-15020
▁몇자	-15021
▁몸에	-15022
▁몸이	-15023
▁무궁	-15024
▁무방	-15025
▁반면	-15026
▁병사	-15027
▁보수	-15028
▁비단	-15029
▁삭제	-15030
▁살다	-15031
▁상가	-15032
▁수록	-15033
▁승인	-15034
▁에서	-15035
▁여아	-15036
▁오르	-15037
▁우회	-15038
▁웃고	-15039
▁원활	-15040
▁의학	-15041
▁입에	-15042
▁재배	-15043
▁정원	-15044
▁종결	-15045
▁죄는	-15046
▁주도	-15047
▁지불	-15048
▁지었	-15049
▁진화	-15050
▁짓는	-15051
▁청산	-15052
▁체불	-15053
▁출소	-15054
▁파견	-15055
▁페이	-15056
▁풀어	-15057
▁한두	-15058
▁향후	-15059
▁휴게	-15060
▁흔히	-15061
가는그	-15062
거리를	-15063
국회의	-15064
극도한	-15065
글올립	-15066
기에는	-15067
냅니다	-15068
다하게	-15069
라인드	-15070
만큼은	-15071
무서운	-15072
문제에	-15073
바르고	-15074
볼때한	-15075
사일을	-15076
여러분	-15077
이기도	-15078
이런청	-15079
인데도	-15080
정부의	-15081
조차갖	-15082
지도록	-15083
지못한	-15084
처리를	-15085
태연히	-15086
하기엔	-15087
행복한	-15088
book	-15089
eria	-15090
ison	-15091
olun	-15092
swer	-15093
uary	-15094
▁Due	-15095
▁Pro	-15096
▁exh	-15097
▁mic	-15098
▁tex	-15099
▁가구의	-15100
▁감정을	-15101
▁강서구	-15102
▁개인이	-15103
▁결정은	-15104
▁계약을	-15105
▁계층에	-15106
▁계획을	-15107
▁고려인	-15108
▁고립을	-15109
▁고민해	-15110
▁공개가	-15111
▁관리를	-15112
▁관리비	-15113
▁국민적	-15114
▁균등한	-15115
▁극악한	-15116
▁근거를	-15117
▁기능은	-15118
▁기여한	-15119
▁기저귀	-15120
▁기준과	-15121
▁나서서	-15122
▁내리는	-15123
▁넘어선	-15124
▁노고를	-15125
▁단축이	-15126
▁대기자	-15127
▁대응과	-15128
▁되므로	-15129
▁드리는	-15130
▁등에서	-15131
▁막아야	-15132
▁목적의	-15133
▁몰라도	-15134
▁문제도	-15135
▁문제일	-15136
▁문제적	-15137
▁반복을	-15138
▁반성은	-15139
▁방과후	-15140
▁배려가	-15141
▁배제를	-15142
▁법률을	-15143
▁법안이	-15144
▁보행자	-15145
▁보호로	-15146
▁복귀에	-15147
▁복수에	-15148
▁분노가	-15149
▁분노에	-15150
▁비판과	-15151
▁사례의	-15152
▁성급한	-15153
▁성장이	-15154
▁소득을	-15155
▁시대의	-15156
▁시작을	-15157
▁아이와	-15158
▁악화를	-15159
▁엄연한	-15160
▁없이도	-15161
▁여기서	-15162
▁영향은	-15163
▁예산을	-15164
▁예전과	-15165
▁올리기	-15166
▁외교에	-15167
▁원하고	-15168
▁유리한	-15169
▁이르렀	-15170
▁이해와	-15171
▁일변도	-15172
▁일으킬	-15173
▁있을까	-15174
▁자에게	-15175
▁재검토	-15176
▁재활에	-15177
▁저하에	-15178
▁적자를	-15179
▁조치일	-15180
▁지원의	-15181
▁지켜야	-15182
▁집행의	-15183
▁추세를	-15184
▁키워야	-15185
▁태어날	-15186
▁파괴를	-15187
▁편의를	-15188
▁한국에	-15189
▁한마디	-15190
▁할수있	-15191
▁핵개발	-15192
▁행정을	-15193
▁헌법에	-15194
▁형벌이	-15195
▁화성시	-15196
▁확보가	-15197
▁활성화	-15198
▁회피가	-15199
그지없는	-15200
되었다고	-15201
로운사회	-15202
에선량한	-15203
올립니다	-15204
icken	-15205
ronic	-15206
stone	-15207
▁Mari	-15208
▁Okay	-15209
▁Soci	-15210
▁acqu	-15211
▁bare	-15212
▁bran	-15213
▁bure	-15214
▁dark	-15215
▁imag	-15216
▁load	-15217
▁rock	-15218
▁shot	-15219
▁virt	-15220
▁가능하고	-15221
▁간주하는	-15222
▁강화하기	-15223
▁계십니다	-15224
▁공공부문	-15225
▁공무원인	-15226
▁공휴일로	-15227
▁공휴일에	-15228
▁교사들이	-15229
▁다스려야	-15230
▁대체휴일	-15231
▁두아이를	-15232
▁들어가는	-15233
▁목소리에	-15234
▁문제점을	-15235
▁받습니다	-15236
▁받았으면	-15237
▁병원에서	-15238
▁병행해야	-15239
▁보행자와	-15240
▁부정부패	-15241
▁사건들에	-15242
▁서민들의	-15243
▁싫습니다	-15244
▁엄중하게	-15245
▁연예인이	-15246
▁예외적인	-15247
▁예전부터	-15248
▁우리아이	-15249
▁위협하고	-15250
▁유지하고	-15251
▁유지해야	-15252
▁이용하고	-15253
▁이용해서	-15254
▁일어나면	-15255
▁자극적인	-15256
▁저해되어	-15257
▁정당화할	-15258
▁존재한다	-15259
▁중요성을	-15260
▁집단으로	-15261
▁청년들이	-15262
▁초래하고	-15263
▁키우기가	-15264
▁특권으로	-15265
▁편의성이	-15266
▁폐지되어	-15267
▁포괄임금	-15268
▁하루종일	-15269
▁핵심적인	-15270
▁확대하는	-15271
▁흡연구역	-15272
가는그들을	-15273
구현을위해	-15274
무악극도한	-15275
뭔의글올립	-15276
바르고정의	-15277
볼때한탄스	-15278
엄마입니다	-15279
청소년들이	-15280
태연히살아	-15281
arency	-15282
itical	-15283
olving	-15284
repren	-15285
▁First	-15286
▁Pride	-15287
▁Volun	-15288
▁essay	-15289
▁lacks	-15290
▁overt	-15291
▁poses	-15292
▁rains	-15293
▁shoes	-15294
▁socio	-15295
▁weeks	-15296
▁가능하다고	-15297
▁가해자들도	-15298
▁과제입니다	-15299
▁궁금합니다	-15300
▁남성입니다	-15301
▁늘려주세요	-15302
▁대통령님과	-15303
▁대통령님을	-15304
▁막아주세요	-15305
▁무자비하게	-15306
▁보장한다는	-15307
▁보호처분을	-15308
▁살인사건도	-15309
▁삶을살아갈	-15310
▁성인들보다	-15311
▁않겠습니까	-15312
▁억울합니다	-15313
▁우리나라를	-15314
▁이나라에서	-15315
▁재사회화를	-15316
▁정당화되기	-15317
▁책임입니다	-15318
▁트라우마로	-15319
▁합법화하는	-15320
▁해결해야지	-15321
살인저질러도	-15322
시민이행복한	-15323
이땅에선량한	-15324
조차갖지않고	-15325
focused	-15326
ictable	-15327
stitute	-15328
▁Answer	-15329
▁assign	-15330
▁formed	-15331
▁interf	-15332
▁resist	-15333
▁secret	-15334
▁series	-15335
▁strive	-15336
▁unions	-15337
▁valued	-15338
▁vision	-15339
▁대학생입니다	-15340
▁럽기그지없는	-15341
▁여성가족부의	-15342
▁폐지해주시기	-15343
▁폐지해주시길	-15344
▁해결해주세요	-15345
소년법은반드시	-15346
처음으로이런청	-15347
▁English	-15348
▁appoint	-15349
▁century	-15350
▁contemp	-15351
▁courses	-15352
▁describ	-15353
▁display	-15354
▁english	-15355
▁figures	-15356
▁finally	-15357
▁habitat	-15358
▁insight	-15359
▁joining	-15360
▁letters	-15361
▁placing	-15362
▁publish	-15363
▁section	-15364
▁utilize	-15365
▁volunte	-15366
▁warming	-15367
▁청소년보호법에	-15368
대한민국의현실에	-15369
▁Students	-15370
▁attached	-15371
▁colleges	-15372
▁engineer	-15373
▁remember	-15374
▁selected	-15375
▁unaccept	-15376
▁삶을살아갈수있게	-15377
로운사회구현을위해	-15378
살인저질러도죄책감	-15379
치는범죄를저지르고	-15380
▁Volunteer	-15381
▁concerned	-15382
▁entrepren	-15383
▁inclusive	-15384
▁materials	-15385
▁producing	-15386
▁specifics	-15387
가는그들을볼때한탄스	-15388
▁Foundation	-15389
▁determined	-15390
▁difficulty	-15391
조차갖지않고무악극도한	-15392
▁identifying	-15393
▁mercenaries	-15394
이땅에선량한시민이행복한	-15395
처음으로이런청뭔의글올립	-15396
▁Philanthropy	-15397
▁Specifically	-15398
▁transparency	-15399
▁unpredictable	-15400
바르고정의로운사회구현을위해	-15401
치는범죄를저지르고태연히살아	-15402
▁establishments	-15403
▁럽기그지없는대한민국의현실에	-15404
▁소년법은폐지되어야마땅합니다	-15405
▁삶을살아갈수있게소년법은반드시	-15406
어리다는이유로살인저질러도죄책감	-15407
'.	-15408
mo	-15409
▁★	-15410
▁났	-15411
▁녹	-15412
▁라	-15413
▁색	-15414
▁융	-15415
가며	-15416
거든	-15417
공격	-15418
과학	-15419
급은	-15420
기구	-15421
년제	-15422
누구	-15423
느라	-15424
니를	-15425
님을	-15426
때도	-15427
로워	-15428
마을	-15429
물로	-15430
물에	-15431
민족	-15432
번에	-15433
보단	-15434
보셨	-15435
복을	-15436
봤자	-15437
북구	-15438
북한	-15439
상은	-15440
순위	-15441
숨김	-15442
시피	-15443
시행	-15444
악을	-15445
안보	-15446
약품	-15447
얼마	-15448
에겐	-15449
여아	-15450
였고	-15451
이수	-15452
입을	-15453
조를	-15454
죄에	-15455
주로	-15456
질을	-15457
치않	-15458
치의	-15459
토지	-15460
폭탄	-15461
하우	-15462
하의	-15463
해라	-15464
ada	-15465
att	-15466
ici	-15467
lom	-15468
oor	-15469
sen	-15470
tes	-15471
yal	-15472
▁간병	-15473
▁강남	-15474
▁강행	-15475
▁개개	-15476
▁결론	-15477
▁계실	-15478
▁계정	-15479
▁고시	-15480
▁고조	-15481
▁고졸	-15482
▁곳은	-15483
▁공인	-15484
▁구제	-15485
▁국책	-15486
▁귀를	-15487
▁김영	-15488
▁나도	-15489
▁날라	-15490
▁내집	-15491
▁노후	-15492
▁논리	-15493
▁높이	-15494
▁다할	-15495
▁대의	-15496
▁되려	-15497
▁로그	-15498
▁말만	-15499
▁망설	-15500
▁면밀	-15501
▁몇번	-15502
▁모자	-15503
▁미루	-15504
▁밀양	-15505
▁별로	-15506
▁분열	-15507
▁불문	-15508
▁불쌍	-15509
▁비싼	-15510
▁산정	-15511
▁삶이	-15512
▁삼는	-15513
▁상환	-15514
▁선고	-15515
▁성을	-15516
▁성취	-15517
▁속에	-15518
▁속이	-15519
▁수반	-15520
▁심정	-15521
▁싸움	-15522
▁애국	-15523
▁억누	-15524
▁여럿	-15525
▁요즈	-15526
▁욕설	-15527
▁울산	-15528
▁의식	-15529
▁이란	-15530
▁자부	-15531
▁잡혀	-15532
▁장점	-15533
▁재고	-15534
▁재외	-15535
▁재혼	-15536
▁전수	-15537
▁전역	-15538
▁절망	-15539
▁정서	-15540
▁정황	-15541
▁좋을	-15542
▁주된	-15543
▁질환	-15544
▁차례	-15545
▁최초	-15546
▁통보	-15547
▁폭언	-15548
▁프리	-15549
▁피할	-15550
▁하락	-15551
▁하셨	-15552
▁한참	-15553
▁합리	-15554
▁현황	-15555
▁혈통	-15556
▁휴전	-15557
간다면	-15558
광역시	-15559
기간제	-15560
년전에	-15561
되었고	-15562
들만의	-15563
보면서	-15564
부에서	-15565
부제는	-15566
뿐더러	-15567
성으로	-15568
시까지	-15569
싶어도	-15570
어지고	-15571
었다는	-15572
왔지만	-15573
인데요	-15574
적이지	-15575
정책에	-15576
정치의	-15577
조사를	-15578
조치를	-15579
타이어	-15580
회에서	-15581
후보자	-15582
airs	-15583
free	-15584
osis	-15585
otic	-15586
rich	-15587
ripp	-15588
vent	-15589
weet	-15590
▁Dep	-15591
▁USA	-15592
▁dil	-15593
▁esp	-15594
▁lie	-15595
▁nef	-15596
▁rom	-15597
▁row	-15598
▁sin	-15599
▁가족은	-15600
▁건가요	-15601
▁경찰청	-15602
▁고정관	-15603
▁공공장	-15604
▁공권력	-15605
▁과태료	-15606
▁괴롭힘	-15607
▁교사가	-15608
▁규정에	-15609
▁기미도	-15610
▁기준의	-15611
▁끝까지	-15612
▁나누는	-15613
▁넘어갈	-15614
▁느끼지	-15615
▁다스려	-15616
▁대응은	-15617
▁되면서	-15618
▁들어갈	-15619
▁떨어뜨	-15620
▁마음과	-15621
▁마음의	-15622
▁만들지	-15623
▁목소리	-15624
▁못하면	-15625
▁무리한	-15626
▁무제한	-15627
▁미국과	-15628
▁반성할	-15629
▁발달과	-15630
▁방지가	-15631
▁배치는	-15632
▁변하고	-15633
▁보아도	-15634
▁보완과	-15635
▁봐주고	-15636
▁부모도	-15637
▁부분을	-15638
▁분산을	-15639
▁분양가	-15640
▁불합리	-15641
▁사실상	-15642
▁사이비	-15643
▁사행성	-15644
▁상대적	-15645
▁상상도	-15646
▁생명에	-15647
▁선택할	-15648
▁성희롱	-15649
▁소홀히	-15650
▁습관을	-15651
▁시기인	-15652
▁실정에	-15653
▁심하게	-15654
▁안되고	-15655
▁애초에	-15656
▁어디있	-15657
▁억제에	-15658
▁엄마가	-15659
▁여자는	-15660
▁여지가	-15661
▁역할이	-15662
▁영어회	-15663
▁예술의	-15664
▁예술인	-15665
▁은폐를	-15666
▁의욕을	-15667
▁이관을	-15668
▁이윤을	-15669
▁일벌백	-15670
▁자기네	-15671
▁자료를	-15672
▁잘못은	-15673
▁접하게	-15674
▁조절과	-15675
▁지원에	-15676
▁진짜로	-15677
▁집단의	-15678
▁집중을	-15679
▁착취할	-15680
▁채용과	-15681
▁충성도	-15682
▁침해와	-15683
▁침해의	-15684
▁통행에	-15685
▁투기과	-15686
▁페이퍼	-15687
▁편집의	-15688
▁편향된	-15689
▁평등이	-15690
▁피해의	-15691
▁하려면	-15692
▁학습이	-15693
▁할까요	-15694
▁합의를	-15695
▁핵무장	-15696
▁핵잠수	-15697
▁했을때	-15698
▁현장에	-15699
▁확보를	-15700
▁후에도	-15701
대통령과	-15702
들에게도	-15703
만이라도	-15704
미성년자	-15705
웠습니다	-15706
폭력사건	-15707
ailed	-15708
hemat	-15709
iture	-15710
lines	-15711
nabis	-15712
rends	-15713
ribly	-15714
▁Mech	-15715
▁Turk	-15716
▁adap	-15717
▁brut	-15718
▁forb	-15719
▁inex	-15720
▁quit	-15721
▁reap	-15722
▁scam	-15723
▁shif	-15724
▁soil	-15725
▁surg	-15726
▁susp	-15727
▁upbr	-15728
▁wall	-15729
▁개인차가	-15730
▁개정하여	-15731
▁개정해야	-15732
▁결정하는	-15733
▁고객들의	-15734
▁고통속에	-15735
▁공공성과	-15736
▁공모하여	-15737
▁공평성을	-15738
▁교육으로	-15739
▁국회에서	-15740
▁균등하게	-15741
▁근로계약	-15742
▁기업들이	-15743
▁기회마저	-15744
▁대두되고	-15745
▁도입으로	-15746
▁말합니다	-15747
▁반복되지	-15748
▁받는다고	-15749
▁받아들이	-15750
▁보여줘야	-15751
▁보장되지	-15752
▁보호법과	-15753
▁본보기가	-15754
▁부정적인	-15755
▁불편함을	-15756
▁블라인드	-15757
▁비만으로	-15758
▁사건들은	-15759
▁사교육에	-15760
▁사드보복	-15761
▁사유화와	-15762
▁성장하고	-15763
▁신중하게	-15764
▁실현하고	-15765
▁실현한다	-15766
▁심각성이	-15767
▁심해지는	-15768
▁심화되어	-15769
▁아파트는	-15770
▁안전망이	-15771
▁알려지지	-15772
▁엄중처벌	-15773
▁없으므로	-15774
▁올라오는	-15775
▁왜곡하는	-15776
▁우려하는	-15777
▁유치원에	-15778
▁의무화로	-15779
▁의미하며	-15780
▁이동권이	-15781
▁이해할수	-15782
▁자유로운	-15783
▁장려하기	-15784
▁장애등급	-15785
▁재학중인	-15786
▁저하시킬	-15787
▁정기적인	-15788
▁정상화와	-15789
▁존재하고	-15790
▁중입니다	-15791
▁지속성과	-15792
▁지원금을	-15793
▁처벌받는	-15794
▁최저시급	-15795
▁폭행당한	-15796
▁폭행으로	-15797
▁학생들도	-15798
▁해주시기	-15799
▁현재까지	-15800
대통령님과	-15801
하셨습니다	-15802
해주십시요	-15803
!!!!!!	-15804
archal	-15805
arents	-15806
enance	-15807
esting	-15808
itated	-15809
ograph	-15810
ration	-15811
seless	-15812
▁Older	-15813
▁Those	-15814
▁abide	-15815
▁alien	-15816
▁alike	-15817
▁banks	-15818
▁chain	-15819
▁cheat	-15820
▁cripp	-15821
▁cults	-15822
▁dealt	-15823
▁final	-15824
▁funny	-15825
▁guide	-15826
▁inhab	-15827
▁lifes	-15828
▁loyal	-15829
▁plays	-15830
▁preys	-15831
▁renew	-15832
▁ruins	-15833
▁shall	-15834
▁silly	-15835
▁spons	-15836
▁stays	-15837
▁unpro	-15838
▁걱정입니다	-15839
▁결과입니다	-15840
▁금지만으로	-15841
▁느껴집니다	-15842
▁다주택자의	-15843
▁당했습니다	-15844
▁미혼부모는	-15845
▁부족하다는	-15846
▁사리사욕을	-15847
▁생활습관을	-15848
▁소비자에게	-15849
▁시간선택제	-15850
▁약화시키고	-15851
▁어린나이에	-15852
▁우선순위를	-15853
▁원장입니다	-15854
▁일시적으로	-15855
▁저소득층의	-15856
▁저지릅니다	-15857
▁제공합니다	-15858
▁주부입니다	-15859
▁창작물에도	-15860
▁타당합니다	-15861
▁프라이버시	-15862
▁학교폭력의	-15863
▁흡연자에게	-15864
celling	-15865
rential	-15866
▁SHOULD	-15867
▁carers	-15868
▁collab	-15869
▁comply	-15870
▁compon	-15871
▁diplom	-15872
▁dispar	-15873
▁drives	-15874
▁edited	-15875
▁farmed	-15876
▁height	-15877
▁ladder	-15878
▁lately	-15879
▁lesser	-15880
▁lowers	-15881
▁minded	-15882
▁pedoph	-15883
▁refuge	-15884
▁refuse	-15885
▁relies	-15886
▁scared	-15887
▁schedu	-15888
▁stance	-15889
▁stands	-15890
▁strips	-15891
▁syrian	-15892
▁takers	-15893
▁thrown	-15894
▁trends	-15895
▁unborn	-15896
▁unfore	-15897
▁volume	-15898
▁가슴아픕니다	-15899
▁국민신문고에	-15900
▁문재인정부가	-15901
▁우리아이들을	-15902
▁자율주행차의	-15903
▁증가시키므로	-15904
▁지원이라지만	-15905
▁청소년범죄를	-15906
▁투기과열지구	-15907
economic	-15908
rocities	-15909
▁Because	-15910
▁agendas	-15911
▁anarchy	-15912
▁answers	-15913
▁atheist	-15914
▁bureauc	-15915
▁categor	-15916
▁closure	-15917
▁committ	-15918
▁genders	-15919
▁horrend	-15920
▁inhibit	-15921
▁mention	-15922
▁monopol	-15923
▁portray	-15924
▁remains	-15925
▁symptom	-15926
▁wasting	-15927
▁whereas	-15928
▁폐지해야한다고	-15929
▁abortion	-15930
▁addition	-15931
▁adoptive	-15932
▁adultery	-15933
▁analysis	-15934
▁connects	-15935
▁coverage	-15936
▁defended	-15937
▁deterent	-15938
▁disrupts	-15939
▁division	-15940
▁divorced	-15941
▁doctrine	-15942
▁enforced	-15943
▁equipped	-15944
▁explored	-15945
▁founding	-15946
▁friendly	-15947
▁habitats	-15948
▁habitual	-15949
▁heritage	-15950
▁incompet	-15951
▁insecure	-15952
▁integral	-15953
▁invasive	-15954
▁marrying	-15955
▁minimize	-15956
▁offended	-15957
▁payments	-15958
▁policing	-15959
▁pregnant	-15960
▁romantic	-15961
▁standing	-15962
▁suitable	-15963
▁suspects	-15964
▁부산여중생사건을	-15965
▁Marijuana	-15966
▁abortions	-15967
▁addressed	-15968
▁algorithm	-15969
▁breakdown	-15970
▁canceling	-15971
▁carefully	-15972
▁defending	-15973
▁degrading	-15974
▁dependent	-15975
▁eradicate	-15976
▁expertise	-15977
▁intervene	-15978
▁liberties	-15979
▁murderers	-15980
▁nefarious	-15981
▁outsiders	-15982
▁platforms	-15983
▁predators	-15984
▁president	-15985
▁prevalent	-15986
▁rewarding	-15987
▁safeguard	-15988
▁undermine	-15989
▁violating	-15990
vironmental	-15991
▁Executives	-15992
▁Mechanical	-15993
▁coalitions	-15994
▁conviction	-15995
▁defendants	-15996
▁disruptive	-15997
▁equivalent	-15998
▁fatalities	-15999
▁harassment	-16000
▁households	-16001
▁percentage	-16002
▁practicing	-16003
▁strengthen	-16004
▁sustenance	-16005
▁temptation	-16006
▁threatened	-16007
▁treatments	-16008
▁tremendous	-16009
▁unforeseen	-16010
▁upbringing	-16011
▁consequence	-16012
▁contributor	-16013
▁controlling	-16014
▁discussions	-16015
▁improvement	-16016
▁indiscrimin	-16017
▁malfunction	-16018
▁manipulated	-16019
▁overcrowded	-16020
▁patriarchal	-16021
▁socializing	-16022
▁transmitted	-16023
▁trustworthy	-16024
▁Missionaries	-16025
▁collectivist	-16026
▁infringement	-16027
▁manipulative	-16028
▁overwhelming	-16029
▁preferential	-16030
▁undemocratic	-16031
▁Environmental	-16032
▁homosexuality	-16033
▁knowledgeable	-16034
▁overpopulated	-16035
▁possibilities	-16036
▁professionals	-16037
▁proliferation	-16038
RO	-16039
cs	-16040
sp	-16041
▁ᆢ	-16042
▁루	-16043
▁섬	-16044
▁십	-16045
간에	-16046
갔다	-16047
계층	-16048
곳은	-16049
기식	-16050
꺼야	-16051
냐고	-16052
님은	-16053
다른	-16054
당의	-16055
동맹	-16056
또는	-16057
라니	-16058
모로	-16059
모습	-16060
물론	-16061
방을	-16062
법원	-16063
벤처	-16064
부와	-16065
소리	-16066
스런	-16067
시가	-16068
아가	-16069
어마	-16070
었을	-16071
용직	-16072
위반	-16073
으시	-16074
이너	-16075
이블	-16076
이션	-16077
이후	-16078
일수	-16079
자고	-16080
정서	-16081
죄로	-16082
증은	-16083
치가	-16084
트라	-16085
판이	-16086
풀이	-16087
하길	-16088
학기	-16089
해산	-16090
환자	-16091
ero	-16092
ley	-16093
men	-16094
mod	-16095
ram	-16096
str	-16097
uns	-16098
▁Se	-16099
▁가려	-16100
▁감수	-16101
▁강원	-16102
▁같고	-16103
▁금전	-16104
▁내내	-16105
▁내지	-16106
▁넘은	-16107
▁눈을	-16108
▁다인	-16109
▁답이	-16110
▁대범	-16111
▁더군	-16112
▁도가	-16113
▁돌파	-16114
▁들을	-16115
▁등교	-16116
▁때가	-16117
▁뜻을	-16118
▁마냥	-16119
▁마을	-16120
▁맞춘	-16121
▁몇십	-16122
▁못받	-16123
▁발굴	-16124
▁버티	-16125
▁벌은	-16126
▁병력	-16127
▁보았	-16128
▁본선	-16129
▁비대	-16130
▁비서	-16131
▁사단	-16132
▁상한	-16133
▁선행	-16134
▁설득	-16135
▁속상	-16136
▁슬픔	-16137
▁승진	-16138
▁시사	-16139
▁신규	-16140
▁신문	-16141
▁실천	-16142
▁않길	-16143
▁없길	-16144
▁연관	-16145
▁열차	-16146
▁영원	-16147
▁예로	-16148
▁우발	-16149
▁움직	-16150
▁위조	-16151
▁유럽	-16152
▁유린	-16153
▁유명	-16154
▁이기	-16155
▁이만	-16156
▁일할	-16157
▁잃고	-16158
▁입양	-16159
▁입찰	-16160
▁잠실	-16161
▁잠을	-16162
▁장교	-16163
▁저렴	-16164
▁전액	-16165
▁접한	-16166
▁지출	-16167
▁진술	-16168
▁챙겨	-16169
▁천안	-16170
▁최종	-16171
▁충전	-16172
▁층간	-16173
▁컴퍼	-16174
▁패지	-16175
▁하향	-16176
▁한정	-16177
▁한쪽	-16178
▁한해	-16179
▁휴대	-16180
관계를	-16181
님들의	-16182
등으로	-16183
떨어진	-16184
만원이	-16185
명보다	-16186
명으로	-16187
모씨가	-16188
모씨와	-16189
문제를	-16190
분들도	-16191
사람은	-16192
성폭행	-16193
소에서	-16194
시간에	-16195
앞으로	-16196
에너지	-16197
용으로	-16198
이상의	-16199
이유는	-16200
인들이	-16201
잔인한	-16202
한만큼	-16203
해야만	-16204
해야할	-16205
했으나	-16206
etal	-16207
iche	-16208
icks	-16209
izza	-16210
mark	-16211
oked	-16212
pper	-16213
road	-16214
sues	-16215
wood	-16216
▁Gen	-16217
▁Its	-16218
▁Let	-16219
▁Ple	-16220
▁Rel	-16221
▁Tok	-16222
▁amp	-16223
▁bri	-16224
▁phr	-16225
▁가까이	-16226
▁같다고	-16227
▁계층을	-16228
▁공론화	-16229
▁공부를	-16230
▁교사를	-16231
▁교통비	-16232
▁규정을	-16233
▁그것은	-16234
▁기대를	-16235
▁김대중	-16236
▁끔직한	-16237
▁남자는	-16238
▁노동에	-16239
▁노동을	-16240
▁노출을	-16241
▁눈감아	-16242
▁다르지	-16243
▁대사관	-16244
▁대학을	-16245
▁도와주	-16246
▁돈으로	-16247
▁동기를	-16248
▁되지만	-16249
▁마련해	-16250
▁많지만	-16251
▁목숨을	-16252
▁무겁게	-16253
▁물건을	-16254
▁바라며	-16255
▁바쁘신	-16256
▁받으며	-16257
▁백화점	-16258
▁법개정	-16259
▁변화의	-16260
▁보내는	-16261
▁보다는	-16262
▁본문의	-16263
▁부담은	-16264
▁부부가	-16265
▁부산의	-16266
▁북한을	-16267
▁분들도	-16268
▁불과한	-16269
▁불균형	-16270
▁불확실	-16271
▁비인간	-16272
▁비판을	-16273
▁비핵화	-16274
▁빠져나	-16275
▁뿐이다	-16276
▁사고로	-16277
▁사업자	-16278
▁상태와	-16279
▁성장에	-16280
▁성향을	-16281
▁세금의	-16282
▁소재가	-16283
▁수없이	-16284
▁시대를	-16285
▁쓰거나	-16286
▁아닌것	-16287
▁아래와	-16288
▁양육과	-16289
▁없애고	-16290
▁없어지	-16291
▁여기에	-16292
▁여성과	-16293
▁오류를	-16294
▁올라온	-16295
▁완화는	-16296
▁유공자	-16297
▁의미는	-16298
▁의지를	-16299
▁이뤄질	-16300
▁자격증	-16301
▁잘못의	-16302
▁잡아야	-16303
▁재통합	-16304
▁저에게	-16305
▁정도는	-16306
▁정의에	-16307
▁정착이	-16308
▁정해진	-16309
▁제발요	-16310
▁제재와	-16311
▁조성에	-16312
▁존재로	-16313
▁좋겠다	-16314
▁죄를지	-16315
▁주차장	-16316
▁준하는	-16317
▁중국과	-16318
▁지나면	-16319
▁책임질	-16320
▁최우선	-16321
▁취지로	-16322
▁특혜로	-16323
▁하려고	-16324
▁협력이	-16325
▁형식적	-16326
▁확대와	-16327
▁회사를	-16328
▁후보자	-16329
▁흉악한	-16330
것이라고	-16331
듯합니다	-16332
안된다고	-16333
적으로도	-16334
하는것은	-16335
MTurk	-16336
reads	-16337
ufact	-16338
▁alph	-16339
▁cart	-16340
▁defe	-16341
▁frag	-16342
▁math	-16343
▁milk	-16344
▁obst	-16345
▁prem	-16346
▁tast	-16347
▁ties	-16348
▁warn	-16349
▁가능성은	-16350
▁가로막아	-16351
▁가르쳐야	-16352
▁가해자만	-16353
▁관리자에	-16354
▁근무환경	-16355
▁금연구역	-16356
▁김모씨가	-16357
▁도와주는	-16358
▁도입되면	-16359
▁떳떳하게	-16360
▁못한다는	-16361
▁무상교육	-16362
▁받지않는	-16363
▁방법으로	-16364
▁법원에서	-16365
▁보장되고	-16366
▁부모에게	-16367
▁불안하고	-16368
▁비롯하여	-16369
▁빈번하게	-16370
▁사리사욕	-16371
▁사회적인	-16372
▁스포츠강	-16373
▁시점에서	-16374
▁안된다면	-16375
▁안전성을	-16376
▁어려움은	-16377
▁영어회화	-16378
▁완화하기	-16379
▁위원회를	-16380
▁유연성을	-16381
▁유해환경	-16382
▁인정하는	-16383
▁일변도의	-16384
▁저출산의	-16385
▁전모씨와	-16386
▁중요하며	-16387
▁처벌받을	-16388
▁컴퍼니를	-16389
▁판단으로	-16390
▁포괄적인	-16391
▁폭력이나	-16392
▁합법적인	-16393
▁행동들이	-16394
▁Somet	-16395
▁Start	-16396
▁Under	-16397
▁While	-16398
▁broke	-16399
▁embar	-16400
▁faced	-16401
▁games	-16402
▁heavy	-16403
▁incor	-16404
▁remed	-16405
▁seeks	-16406
▁stret	-16407
▁sugar	-16408
▁veter	-16409
▁고발합니다	-16410
▁교통사고를	-16411
▁나라입니까	-16412
▁나왔습니다	-16413
▁들어주세요	-16414
▁보호하고자	-16415
▁부산청소년	-16416
▁사각지대를	-16417
▁사람으로써	-16418
▁생각하세요	-16419
▁생각한다면	-16420
▁여성입니다	-16421
▁의무적으로	-16422
▁일반화하는	-16423
▁전국적으로	-16424
▁중학생들이	-16425
▁피해자보다	-16426
▁할것입니다	-16427
되어야합니다	-16428
이라기보다는	-16429
ifiable	-16430
reating	-16431
related	-16432
▁Causes	-16433
▁Google	-16434
▁Issues	-16435
▁Please	-16436
▁apples	-16437
▁bright	-16438
▁exceed	-16439
▁flight	-16440
▁fruits	-16441
▁gained	-16442
▁lesson	-16443
▁lowest	-16444
▁picked	-16445
▁remote	-16446
▁switch	-16447
▁ticket	-16448
▁undert	-16449
▁뒷받침되어야	-16450
▁일변도보다는	-16451
mination	-16452
▁approve	-16453
▁closely	-16454
▁compreh	-16455
▁damaged	-16456
▁fiction	-16457
▁himself	-16458
▁managed	-16459
▁recruit	-16460
▁restric	-16461
▁spreads	-16462
▁unhappy	-16463
▁가정어린이집의	-16464
▁Societal	-16465
▁criteria	-16466
▁discount	-16467
▁manufact	-16468
▁packages	-16469
▁pictures	-16470
▁precious	-16471
▁reaction	-16472
▁retained	-16473
▁shooting	-16474
▁청소년보호법이란	-16475
▁educating	-16476
▁reinforce	-16477
▁repayment	-16478
▁selecting	-16479
▁statement	-16480
▁adequately	-16481
▁capitalism	-16482
▁innovative	-16483
▁intentions	-16484
▁philosophy	-16485
▁supplement	-16486
▁celebration	-16487
▁differently	-16488
▁flexibility	-16489
▁personality	-16490
▁surrounding	-16491
▁entrepreneur	-16492
▁expectations	-16493
▁shareholders	-16494
▁automatically	-16495
▁accountability	-16496
▁administration	-16497
?!	-16498
IT	-16499
OS	-16500
hr	-16501
ux	-16502
ye	-16503
▁며	-16504
▁컨	-16505
▁험	-16506
강간	-16507
개혁	-16508
국방	-16509
군경	-16510
권리	-16511
금은	-16512
금이	-16513
님께	-16514
되야	-16515
라마	-16516
류를	-16517
면에	-16518
무시	-16519
물과	-16520
미로	-16521
바이	-16522
방위	-16523
방해	-16524
부처	-16525
불량	-16526
사실	-16527
산물	-16528
생도	-16529
세의	-16530
소연	-16531
소장	-16532
악마	-16533
어를	-16534
없다	-16535
예정	-16536
오르	-16537
위와	-16538
인생	-16539
임승	-16540
임이	-16541
적폐	-16542
죄는	-16543
주년	-16544
지의	-16545
찮게	-16546
찰과	-16547
총리	-16548
침이	-16549
토록	-16550
투자	-16551
평화	-16552
포상	-16553
프트	-16554
한당	-16555
항을	-16556
효과	-16557
---	-16558
col	-16559
ede	-16560
lop	-16561
nch	-16562
ohn	-16563
oul	-16564
ung	-16565
vol	-16566
yth	-16567
▁CH	-16568
▁ge	-16569
▁id	-16570
▁감경	-16571
▁강압	-16572
▁갖게	-16573
▁같다	-16574
▁개설	-16575
▁건지	-16576
▁경유	-16577
▁고가	-16578
▁공장	-16579
▁구청	-16580
▁구현	-16581
▁기피	-16582
[...]
